{
  "version": "1.0",
  "truncation": null,
  "padding": null,
  "added_tokens": [
    {
      "id": 0,
      "content": "[UNK]",
      "single_word": false,
      "lstrip": false,
      "rstrip": false,
      "normalized": false,
      "special": true
    },
    {
      "id": 1,
      "content": "[PAD]",
      "single_word": false,
      "lstrip": false,
      "rstrip": false,
      "normalized": false,
      "special": true
    },
    {
      "id": 2,
      "content": "[CLS]",
      "single_word": false,
      "lstrip": false,
      "rstrip": false,
      "normalized": false,
      "special": true
    },
    {
      "id": 3,
      "content": "[SEP]",
      "single_word": false,
      "lstrip": false,
      "rstrip": false,
      "normalized": false,
      "special": true
    },
    {
      "id": 4,
      "content": " <|findelteorema|>",
      "single_word": false,
      "lstrip": false,
      "rstrip": false,
      "normalized": false,
      "special": true
    }
  ],
  "normalizer": null,
  "pre_tokenizer": {
    "type": "Split",
    "pattern": {
      "String": " "
    },
    "behavior": "MergedWithNext",
    "invert": false
  },
  "post_processor": null,
  "decoder": null,
  "model": {
    "type": "BPE",
    "dropout": null,
    "unk_token": "[UNK]",
    "continuing_subword_prefix": null,
    "end_of_word_suffix": null,
    "fuse_unk": false,
    "byte_fallback": false,
    "ignore_merges": false,
    "vocab": {
      "[UNK]": 0,
      "[PAD]": 1,
      "[CLS]": 2,
      "[SEP]": 3,
      " <|findelteorema|>": 4,
      "\n": 5,
      " ": 6,
      "!": 7,
      "\"": 8,
      "#": 9,
      "$": 10,
      "%": 11,
      "&": 12,
      "'": 13,
      "(": 14,
      ")": 15,
      "*": 16,
      "+": 17,
      ",": 18,
      "-": 19,
      ".": 20,
      "/": 21,
      "0": 22,
      "1": 23,
      "2": 24,
      "3": 25,
      "4": 26,
      "5": 27,
      "6": 28,
      "7": 29,
      "8": 30,
      "9": 31,
      ":": 32,
      ";": 33,
      "<": 34,
      "=": 35,
      ">": 36,
      "?": 37,
      "@": 38,
      "A": 39,
      "B": 40,
      "C": 41,
      "D": 42,
      "E": 43,
      "F": 44,
      "G": 45,
      "H": 46,
      "I": 47,
      "J": 48,
      "K": 49,
      "L": 50,
      "M": 51,
      "N": 52,
      "O": 53,
      "P": 54,
      "Q": 55,
      "R": 56,
      "S": 57,
      "T": 58,
      "U": 59,
      "V": 60,
      "W": 61,
      "X": 62,
      "Y": 63,
      "Z": 64,
      "[": 65,
      "\\": 66,
      "]": 67,
      "^": 68,
      "_": 69,
      "`": 70,
      "a": 71,
      "b": 72,
      "c": 73,
      "d": 74,
      "e": 75,
      "f": 76,
      "g": 77,
      "h": 78,
      "i": 79,
      "j": 80,
      "k": 81,
      "l": 82,
      "m": 83,
      "n": 84,
      "o": 85,
      "p": 86,
      "q": 87,
      "r": 88,
      "s": 89,
      "t": 90,
      "u": 91,
      "v": 92,
      "w": 93,
      "x": 94,
      "y": 95,
      "z": 96,
      "{": 97,
      "|": 98,
      "}": 99,
      "~": 100,
      "«": 101,
      "¬": 102,
      "²": 103,
      "³": 104,
      "·": 105,
      "¹": 106,
      "»": 107,
      "×": 108,
      "ʷ": 109,
      "ʸ": 110,
      "ˢ": 111,
      "ˣ": 112,
      "̂": 113,
      "Γ": 114,
      "Δ": 115,
      "Θ": 116,
      "Ι": 117,
      "Λ": 118,
      "Π": 119,
      "Σ": 120,
      "Φ": 121,
      "Ψ": 122,
      "Ω": 123,
      "α": 124,
      "β": 125,
      "γ": 126,
      "δ": 127,
      "ε": 128,
      "ζ": 129,
      "η": 130,
      "θ": 131,
      "ι": 132,
      "κ": 133,
      "λ": 134,
      "μ": 135,
      "ν": 136,
      "ξ": 137,
      "π": 138,
      "ρ": 139,
      "σ": 140,
      "τ": 141,
      "υ": 142,
      "φ": 143,
      "χ": 144,
      "ψ": 145,
      "ω": 146,
      "ϕ": 147,
      "ϖ": 148,
      "ᗮ": 149,
      "ᘁ": 150,
      "ᴬ": 151,
      "ᴴ": 152,
      "ᴸ": 153,
      "ᵀ": 154,
      "ᵁ": 155,
      "ᵃ": 156,
      "ᵇ": 157,
      "ᵈ": 158,
      "ᵉ": 159,
      "ᵍ": 160,
      "ᵐ": 161,
      "ᵒ": 162,
      "ᵖ": 163,
      "ᵛ": 164,
      "ᵢ": 165,
      "ᵣ": 166,
      "ᵤ": 167,
      "ᵥ": 168,
      "ᶜ": 169,
      "ᶠ": 170,
      "‖": 171,
      "†": 172,
      "•": 173,
      "′": 174,
      "‹": 175,
      "›": 176,
      "‼": 177,
      "⁄": 178,
      "⁅": 179,
      "⁆": 180,
      "⁰": 181,
      "ⁱ": 182,
      "⁴": 183,
      "⁵": 184,
      "⁶": 185,
      "⁸": 186,
      "⁺": 187,
      "⁻": 188,
      "ⁿ": 189,
      "₀": 190,
      "₁": 191,
      "₂": 192,
      "₃": 193,
      "₄": 194,
      "₅": 195,
      "₆": 196,
      "₇": 197,
      "₈": 198,
      "₉": 199,
      "₊": 200,
      "ₐ": 201,
      "ₑ": 202,
      "ₒ": 203,
      "ₓ": 204,
      "ₕ": 205,
      "ₖ": 206,
      "ₗ": 207,
      "ₘ": 208,
      "ₙ": 209,
      "ₚ": 210,
      "ₛ": 211,
      "ₜ": 212,
      "ℂ": 213,
      "ℍ": 214,
      "ℐ": 215,
      "ℑ": 216,
      "ℒ": 217,
      "ℓ": 218,
      "ℕ": 219,
      "ℙ": 220,
      "ℚ": 221,
      "ℜ": 222,
      "ℝ": 223,
      "ℤ": 224,
      "ℬ": 225,
      "ℰ": 226,
      "ℱ": 227,
      "ℳ": 228,
      "ℵ": 229,
      "⅟": 230,
      "←": 231,
      "↑": 232,
      "→": 233,
      "↓": 234,
      "↔": 235,
      "↗": 236,
      "↟": 237,
      "↥": 238,
      "↦": 239,
      "↪": 240,
      "↾": 241,
      "↿": 242,
      "⇑": 243,
      "⇒": 244,
      "⇔": 245,
      "⇨": 246,
      "∀": 247,
      "∂": 248,
      "∃": 249,
      "∅": 250,
      "∆": 251,
      "∇": 252,
      "∈": 253,
      "∉": 254,
      "∏": 255,
      "∐": 256,
      "∑": 257,
      "∗": 258,
      "∘": 259,
      "∙": 260,
      "√": 261,
      "∞": 262,
      "∠": 263,
      "∡": 264,
      "∣": 265,
      "∤": 266,
      "∥": 267,
      "∧": 268,
      "∨": 269,
      "∩": 270,
      "∪": 271,
      "∫": 272,
      "∮": 273,
      "∯": 274,
      "∼": 275,
      "≃": 276,
      "≅": 277,
      "≈": 278,
      "≌": 279,
      "≠": 280,
      "≡": 281,
      "≤": 282,
      "≥": 283,
      "≪": 284,
      "≫": 285,
      "≺": 286,
      "≼": 287,
      "⊂": 288,
      "⊆": 289,
      "⊇": 290,
      "⊓": 291,
      "⊔": 292,
      "⊕": 293,
      "⊗": 294,
      "⊙": 295,
      "⊚": 296,
      "⊞": 297,
      "⊢": 298,
      "⊣": 299,
      "⊤": 300,
      "⊥": 301,
      "⊨": 302,
      "⊻": 303,
      "⊼": 304,
      "⋀": 305,
      "⋂": 306,
      "⋃": 307,
      "⋆": 308,
      "⋈": 309,
      "⋊": 310,
      "⋖": 311,
      "⋙": 312,
      "⋯": 313,
      "⌈": 314,
      "⌉": 315,
      "⌊": 316,
      "⌋": 317,
      "⍟": 318,
      "□": 319,
      "▷": 320,
      "▸": 321,
      "◁": 322,
      "◃": 323,
      "○": 324,
      "◫": 325,
      "♯": 326,
      "✝": 327,
      "✶": 328,
      "⟂": 329,
      "⟦": 330,
      "⟧": 331,
      "⟨": 332,
      "⟩": 333,
      "⟪": 334,
      "⟫": 335,
      "⟮": 336,
      "⟯": 337,
      "⟶": 338,
      "⟹": 339,
      "⤳": 340,
      "⥤": 341,
      "⦃": 342,
      "⦄": 343,
      "⧏": 344,
      "⧸": 345,
      "⨁": 346,
      "⨂": 347,
      "⨅": 348,
      "⨆": 349,
      "⨍": 350,
      "⨯": 351,
      "⨳": 352,
      "⨿": 353,
      "⩿": 354,
      "⬝": 355,
      "￢": 356,
      "𝐒": 357,
      "𝐞": 358,
      "𝑳": 359,
      "𝑹": 360,
      "𝒄": 361,
      "𝒅": 362,
      "𝒜": 363,
      "𝒞": 364,
      "𝒟": 365,
      "𝒢": 366,
      "𝒪": 367,
      "𝒫": 368,
      "𝒮": 369,
      "𝒯": 370,
      "𝒰": 371,
      "𝒱": 372,
      "𝒳": 373,
      "𝒴": 374,
      "𝓐": 375,
      "𝓒": 376,
      "𝓓": 377,
      "𝓕": 378,
      "𝓘": 379,
      "𝓚": 380,
      "𝓜": 381,
      "𝓝": 382,
      "𝓞": 383,
      "𝓟": 384,
      "𝓢": 385,
      "𝓤": 386,
      "𝔖": 387,
      "𝔗": 388,
      "𝔠": 389,
      "𝔭": 390,
      "𝔸": 391,
      "𝔻": 392,
      "𝔼": 393,
      "𝕀": 394,
      "𝕂": 395,
      "𝕄": 396,
      "𝕊": 397,
      "𝕌": 398,
      "𝕎": 399,
      "𝕜": 400,
      "𝕝": 401,
      "𝖣": 402,
      "𝟙": 403,
      "𝟭": 404,
      " :": 405,
      " (": 406,
      "in": 407,
      " h": 408,
      "or": 409,
      "on": 410,
      "em": 411,
      "te": 412,
      "le": 413,
      " [": 414,
      "mp": 415,
      "pe": 416,
      "al": 417,
      " b": 418,
      " :=": 419,
      "de": 420,
      " u": 421,
      "su": 422,
      "ype": 423,
      "orem": 424,
      "ro": 425,
      " T": 426,
      "]\n": 427,
      "fin": 428,
      "se": 429,
      "t_": 430,
      "ma": 431,
      " Type": 432,
      " =": 433,
      "re": 434,
      "ct": 435,
      " <": 436,
      "si": 437,
      "f_": 438,
      " by": 439,
      "th": 440,
      "ul": 441,
      " a": 442,
      " f": 443,
      "rw": 444,
      "lte": 445,
      " by\n": 446,
      "un": 447,
      "co": 448,
      " <|": 449,
      "eq": 450,
      "ly": 451,
      " x": 452,
      " _": 453,
      "ra": 454,
      "ex": 455,
      "is": 456,
      " u_": 457,
      "simp": 458,
      "mul": 459,
      "|>": 460,
      "a|>": 461,
      "delte": 462,
      "orema|>": 463,
      "findelte": 464,
      " <|findelte": 465,
      "if": 466,
      "t.": 467,
      "e_": 468,
      "ri": 469,
      "d_": 470,
      " n": 471,
      " α": 472,
      " i": 473,
      "eq_": 474,
      "ap": 475,
      "ve": 476,
      " S": 477,
      "of_": 478,
      " s": 479,
      "act": 480,
      ").": 481,
      "ca": 482,
      "con": 483,
      "ing": 484,
      "po": 485,
      "to": 486,
      " →": 487,
      "mul_": 488,
      "ze": 489,
      "ea": 490,
      " F": 491,
      "1)": 492,
      " (f": 493,
      "exact": 494,
      " ⟨": 495,
      "le_": 496,
      " M": 497,
      "mem": 498,
      "ti": 499,
      "zero": 500,
      "map": 501,
      "the": 502,
      "om": 503,
      " α)": 504,
      "ne": 505,
      "ge": 506,
      " C": 507,
      "lem": 508,
      "sub": 509,
      "ha": 510,
      "theorem": 511,
      "lemma": 512,
      "s_": 513,
      " =>": 514,
      "iv": 515,
      " R": 516,
      " I": 517,
      "ad": 518,
      "app": 519,
      " p": 520,
      " u_1)": 521,
      "st": 522,
      "iff": 523,
      "mem_": 524,
      " on": 525,
      "apply": 526,
      "mm": 527,
      " *": 528,
      " r": 529,
      ")\n": 530,
      " only": 531,
      "an": 532,
      "easu": 533,
      "int": 534,
      "ran": 535,
      " (α": 536,
      "al.": 537,
      "orm": 538,
      "at": 539,
      "comp": 540,
      " P": 541,
      "fl": 542,
      "_eq_": 543,
      "ith": 544,
      "?_": 545,
      "et": 546,
      " fun": 547,
      "ion": 548,
      "lo": 549,
      " w": 550,
      "⟩\n": 551,
      " y": 552,
      " ?_": 553,
      "inse": 554,
      " 0": 555,
      "sing": 556,
      " L": 557,
      "ce": 558,
      " [←": 559,
      "iff_": 560,
      " E": 561,
      "2)": 562,
      " m": 563,
      " +": 564,
      "du": 565,
      "fine": 566,
      "have": 567,
      "ar": 568,
      "pow": 569,
      "it": 570,
      "gh": 571,
      " t": 572,
      " hx": 573,
      " c": 574,
      " (x": 575,
      "so": 576,
      "gr": 577,
      " N": 578,
      "))": 579,
      " ←": 580,
      "Re": 581,
      " g": 582,
      " (a": 583,
      "al_": 584,
      "er": 585,
      "en": 586,
      " A": 587,
      "neg": 588,
      "intro": 589,
      "In": 590,
      "ist": 591,
      "map_": 592,
      "Su": 593,
      " ∈": 594,
      "as": 595,
      "refine": 596,
      " ℕ": 597,
      " (h": 598,
      " (n": 599,
      " ℝ": 600,
      " at": 601,
      " (s": 602,
      "at.": 603,
      "Co": 604,
      " u_2)": 605,
      " l": 606,
      "cc": 607,
      "add_": 608,
      "_of_": 609,
      " -": 610,
      "_n": 611,
      "lef": 612,
      "ory": 613,
      "ble": 614,
      "easure": 615,
      "ymm": 616,
      "case": 617,
      "inte": 618,
      "one": 619,
      ",\n": 620,
      "cases": 621,
      " v": 622,
      " (b": 623,
      "ta": 624,
      "Map": 625,
      "righ": 626,
      " ↑": 627,
      " ι": 628,
      "ds": 629,
      "uo": 630,
      " H": 631,
      "ction": 632,
      "pro": 633,
      " with": 634,
      " 1": 635,
      " ℕ)": 636,
      " u)": 637,
      "s.": 638,
      " ^": 639,
      "tion": 640,
      "inv": 641,
      " Set": 642,
      " d": 643,
      " β": 644,
      " ≤": 645,
      "ot_": 646,
      " simp": 647,
      "symm": 648,
      " e": 649,
      " rfl": 650,
      " ha": 651,
      "qu": 652,
      "li": 653,
      "Un": 654,
      " using": 655,
      " X": 656,
      "lt_": 657,
      "p_": 658,
      "left": 659,
      " (R": 660,
      " mul_": 661,
      "sum": 662,
      " ↔": 663,
      " Finse": 664,
      " hf": 665,
      "comm": 666,
      " j": 667,
      "r_": 668,
      "coe_": 669,
      " k": 670,
      "ob": 671,
      "Hom": 672,
      "car": 673,
      "et.": 674,
      "let": 675,
      " (p": 676,
      "succ": 677,
      " (fun": 678,
      "this": 679,
      "zero_": 680,
      " [h": 681,
      "ge_": 682,
      "ono": 683,
      "right": 684,
      "sub_": 685,
      "us": 686,
      "ory.": 687,
      "pp": 688,
      "ate": 689,
      "l_": 690,
      "ty": 691,
      "he": 692,
      "id": 693,
      " ((": 694,
      "tin": 695,
      "ext": 696,
      " G": 697,
      "of": 698,
      "ima": 699,
      "add": 700,
      "riv": 701,
      " rw": 702,
      "pow_": 703,
      " |": 704,
      "rable": 705,
      " (F": 706,
      " z": 707,
      "mk": 708,
      "inea": 709,
      "norm": 710,
      "soc": 711,
      "tinuo": 712,
      "De": 713,
      "set": 714,
      "tran": 715,
      " Su": 716,
      "mple": 717,
      "div": 718,
      "ic": 719,
      " Is": 720,
      "mo": 721,
      " Nat.": 722,
      ".2": 723,
      "inear": 724,
      "To": 725,
      "ten": 726,
      "),": 727,
      "ect": 728,
      " B": 729,
      "sel": 730,
      " h\n": 731,
      "ver": 732,
      "congr": 733,
      "The": 734,
      ".1": 735,
      "3)": 736,
      " ℝ)": 737,
      "Theory.": 738,
      "pa": 739,
      " this": 740,
      " K": 741,
      "ru": 742,
      "mul,": 743,
      "bra": 744,
      "ilte": 745,
      "pen": 746,
      "set_": 747,
      " u_3)": 748,
      "pos": 749,
      " Sub": 750,
      "gebra": 751,
      " /": 752,
      "coe": 753,
      " μ": 754,
      "On": 755,
      " Measure": 756,
      " (M": 757,
      "ite": 758,
      " (g": 759,
      "lt": 760,
      "quiv": 761,
      "exist": 762,
      "_apply": 763,
      "dsto": 764,
      "st_": 765,
      "With": 766,
      "assoc": 767,
      "Fun": 768,
      "ject": 769,
      " hs": 770,
      " R)": 771,
      "Sub": 772,
      " ↦": 773,
      " ∀": 774,
      "simp\n": 775,
      "one_": 776,
      "simpa": 777,
      "trans": 778,
      "di": 779,
      "dule": 780,
      " {": 781,
      " (i": 782,
      "log": 783,
      " Finset.": 784,
      " •": 785,
      " β)": 786,
      "tain": 787,
      "obtain": 788,
      ".to": 789,
      " x)": 790,
      "dd": 791,
      " hp": 792,
      " (m": 793,
      " O": 794,
      "up": 795,
      " (β": 796,
      "me": 797,
      " Set.": 798,
      "mono": 799,
      "rfl": 800,
      "easurable": 801,
      " 1)": 802,
      " mem_": 803,
      "Real.": 804,
      "emp": 805,
      "val": 806,
      "oc": 807,
      "omi": 808,
      " (E": 809,
      " in": 810,
      " C)": 811,
      "empty": 812,
      "non": 813,
      "tinuous": 814,
      "ot": 815,
      "',": 816,
      " 2": 817,
      " (c": 818,
      "exists_": 819,
      " hy": 820,
      " V": 821,
      "supp": 822,
      "ctor": 823,
      "asi": 824,
      "smul_": 825,
      "Equiv": 826,
      "ali": 827,
      " E)": 828,
      " hi": 829,
      " (C": 830,
      "iff,": 831,
      "jo": 832,
      "subset_": 833,
      " ?_\n": 834,
      "Is": 835,
      "NN": 836,
      "leton": 837,
      "x.": 838,
      " Fin": 839,
      " 𝕜": 840,
      "self": 841,
      " (S": 842,
      "d.": 843,
      " ad": 844,
      " le_": 845,
      " hb": 846,
      ";>": 847,
      " <;>": 848,
      ".in": 849,
      "or_": 850,
      "ne_": 851,
      "im": 852,
      "ive": 853,
      " i)": 854,
      "pan": 855,
      "zero,": 856,
      "top": 857,
      "ateg": 858,
      "Inte": 859,
      "_rw": 860,
      "gre": 861,
      "Se": 862,
      " (X": 863,
      "all": 864,
      "comp_": 865,
      " hn": 866,
      " ≫": 867,
      "const": 868,
      "inearMap": 869,
      "jective": 870,
      "sum_": 871,
      "⁻¹": 872,
      "range": 873,
      " (ι": 874,
      "s,": 875,
      " q": 876,
      "ilter": 877,
      " exact": 878,
      " ∃": 879,
      "tendsto": 880,
      " ∧": 881,
      ".symm": 882,
      "ch": 883,
      "inv_": 884,
      "il": 885,
      " ‖": 886,
      "singleton": 887,
      "gral_": 888,
      "nomi": 889,
      "lynomi": 890,
      " _\n": 891,
      " Y": 892,
      "hom": 893,
      "y_": 894,
      "Pro": 895,
      "card_": 896,
      " In": 897,
      ".map_": 898,
      "pre": 899,
      " M)": 900,
      " v)": 901,
      " D": 902,
      "um": 903,
      "type": 904,
      " add_": 905,
      "rcases": 906,
      "univ": 907,
      "module": 908,
      " (y": 909,
      "ation": 910,
      " n)": 911,
      "nat": 912,
      "oo": 913,
      "ist.": 914,
      "rintro": 915,
      "ci": 916,
      "nce": 917,
      " ι)": 918,
      "ie": 919,
      " con": 920,
      "Iso": 921,
      "stri": 922,
      "fun": 923,
      " (t": 924,
      "prod_": 925,
      "card": 926,
      "olynomi": 927,
      "Within": 928,
      "ff": 929,
      " ⟶": 930,
      "image_": 931,
      "nt": 932,
      "NNReal.": 933,
      "lim": 934,
      "dis": 935,
      "simp_rw": 936,
      "Nat.": 937,
      ".re": 938,
      " (A": 939,
      " (μ": 940,
      "ulti": 941,
      "ble_": 942,
      " Categ": 943,
      "image": 944,
      "Of": 945,
      "Deriv": 946,
      "Con": 947,
      "div_": 948,
      "Union": 949,
      "atri": 950,
      "ph": 951,
      "eg": 952,
      "4)": 953,
      "ort": 954,
      " W": 955,
      "wo": 956,
      "not_": 957,
      " (l": 958,
      "ally": 959,
      "clo": 960,
      "cast_": 961,
      "pi": 962,
      "def": 963,
      "ift": 964,
      "pace": 965,
      " ht": 966,
      ".mp": 967,
      "rfl\n": 968,
      " Pro": 969,
      " u_4)": 970,
      ".map": 971,
      "join": 972,
      " _)": 973,
      "_s": 974,
      "ir": 975,
      " (I": 976,
      "igh": 977,
      " (G": 978,
      "duction": 979,
      "x,": 980,
      "algebra": 981,
      "')": 982,
      "cance": 983,
      "ac": 984,
      " ℤ": 985,
      "dv": 986,
      "sure": 987,
      "ction.": 988,
      " (P": 989,
      "integral_": 990,
      "ity": 991,
      "Fin": 992,
      "At": 993,
      " Co": 994,
      "iff]\n": 995,
      " map_": 996,
      ".s": 997,
      " hg": 998,
      "₂)": 999,
      "inser": 1000,
      " ↑(": 1001,
      "Comp": 1002,
      " is": 1003,
      "ker": 1004,
      "ab": 1005,
      " _).": 1006,
      " Or": 1007,
      "_eq": 1008,
      "prod": 1009,
      "Comple": 1010,
      " (L": 1011,
      " Con": 1012,
      "ol": 1013,
      "Finse": 1014,
      " Re": 1015,
      "all_": 1016,
      "oryTheory.": 1017,
      "le_of_": 1018,
      "op": 1019,
      " (r": 1020,
      ".f": 1021,
      "assoc,": 1022,
      " CategoryTheory.": 1023,
      "olynomial.": 1024,
      " a)": 1025,
      "lgebra": 1026,
      " hc": 1027,
      " zero_": 1028,
      "Space": 1029,
      " hm": 1030,
      " this\n": 1031,
      " (by": 1032,
      "_in": 1033,
      " ?_⟩\n": 1034,
      ".b": 1035,
      "'\n": 1036,
      ".is": 1037,
      "zero]\n": 1038,
      " Q": 1039,
      " Finset": 1040,
      "actor": 1041,
      "hds": 1042,
      "ang": 1043,
      " F)": 1044,
      " J": 1045,
      " ENNReal.": 1046,
      "_iff_": 1047,
      "Top": 1048,
      " List.": 1049,
      " ≠": 1050,
      "Real": 1051,
      "ur": 1052,
      "inearMap.": 1053,
      "am": 1054,
      "vert": 1055,
      "ow": 1056,
      "iUnion": 1057,
      "der": 1058,
      " :=\n": 1059,
      " MeasureTheory.": 1060,
      " to": 1061,
      "nonneg": 1062,
      " ih": 1063,
      "two": 1064,
      "t_of_": 1065,
      " one_": 1066,
      "ng": 1067,
      "ef": 1068,
      " h₁": 1069,
      "max": 1070,
      "roup": 1071,
      "cast": 1072,
      "by_": 1073,
      "norm_": 1074,
      "oun": 1075,
      "deriv": 1076,
      "ter": 1077,
      "one,": 1078,
      " b)": 1079,
      "induction": 1080,
      "≥0": 1081,
      "mul]\n": 1082,
      "ted": 1083,
      " not_": 1084,
      "add,": 1085,
      "⟩,": 1086,
      "_ne_": 1087,
      " s)": 1088,
      " h_": 1089,
      " co": 1090,
      " G)": 1091,
      " norm": 1092,
      "ent": 1093,
      "Degre": 1094,
      " ×": 1095,
      "Open": 1096,
      " φ": 1097,
      " ℝ≥0": 1098,
      "per": 1099,
      "hea": 1100,
      " f)": 1101,
      "₁)": 1102,
      "din": 1103,
      " X)": 1104,
      "rwa": 1105,
      " (e": 1106,
      "_non": 1107,
      "rim": 1108,
      " U": 1109,
      "tendsto_": 1110,
      "ux": 1111,
      " Fun": 1112,
      "val_": 1113,
      "aliz": 1114,
      " ε": 1115,
      ".mem_": 1116,
      " ℤ)": 1117,
      " Z": 1118,
      "range_": 1119,
      " Real.": 1120,
      "eq,": 1121,
      "se_": 1122,
      "_apply,": 1123,
      "Set": 1124,
      "])": 1125,
      " hr": 1126,
      "rime": 1127,
      ".coe_": 1128,
      " s,": 1129,
      "rable_": 1130,
      "Real_": 1131,
      " re": 1132,
      "inter_": 1133,
      "algebraMap": 1134,
      " x\n": 1135,
      "_le_": 1136,
      "Mo": 1137,
      " eq_": 1138,
      "dinal.": 1139,
      "Clo": 1140,
      " Submodule": 1141,
      "rank": 1142,
      "cal": 1143,
      "strict": 1144,
      "''": 1145,
      "set.": 1146,
      "Ring": 1147,
      " hx\n": 1148,
      "apply,": 1149,
      "alize": 1150,
      "t_eq_": 1151,
      "nd": 1152,
      " (𝕜": 1153,
      "comm,": 1154,
      " (v": 1155,
      "pl": 1156,
      " h₂": 1157,
      " un": 1158,
      "₁,": 1159,
      "Measure": 1160,
      "for": 1161,
      "cle": 1162,
      "tra": 1163,
      " (K": 1164,
      "union": 1165,
      " (k": 1166,
      "obj": 1167,
      "sed": 1168,
      ").symm": 1169,
      " neg": 1170,
      " ⟨h": 1171,
      ".con": 1172,
      "olog": 1173,
      ".e": 1174,
      "ae": 1175,
      " Filter": 1176,
      " ∘": 1177,
      ".le": 1178,
      "ight": 1179,
      "ually": 1180,
      " [mem_": 1181,
      " rfl⟩\n": 1182,
      "imple": 1183,
      " List": 1184,
      " Int.": 1185,
      "us_": 1186,
      " V)": 1187,
      " ℂ": 1188,
      "cha": 1189,
      " γ": 1190,
      " (↑": 1191,
      " exists_": 1192,
      " Matri": 1193,
      " ∂": 1194,
      "inter": 1195,
      "ig": 1196,
      "vent": 1197,
      "finite": 1198,
      "by_cases": 1199,
      "be": 1200,
      "p)": 1201,
      "neg_": 1202,
      "t,": 1203,
      "Unit": 1204,
      "5)": 1205,
      "pli": 1206,
      "dvd_": 1207,
      ".comp": 1208,
      "asis": 1209,
      "})": 1210,
      ".trans": 1211,
      "self_": 1212,
      "ventually": 1213,
      "rie": 1214,
      "ne_zero": 1215,
      "cat": 1216,
      " Multi": 1217,
      "Sup": 1218,
      "equ": 1219,
      "left_": 1220,
      " smul_": 1221,
      "sup": 1222,
      "get": 1223,
      "pos_": 1224,
      "d,": 1225,
      " y)": 1226,
      "subset": 1227,
      " Polynomial.": 1228,
      " u_5)": 1229,
      "convert": 1230,
      "ull": 1231,
      " (-": 1232,
      "uoti": 1233,
      "At_": 1234,
      "Set.": 1235,
      "den": 1236,
      "has": 1237,
      " o": 1238,
      "right_": 1239,
      "nhds": 1240,
      "Loc": 1241,
      " h,": 1242,
      "deal.": 1243,
      " =>\n": 1244,
      "iform": 1245,
      " _)\n": 1246,
      " hz": 1247,
      "ngth": 1248,
      "Pre": 1249,
      " s.": 1250,
      " [mul_": 1251,
      " A)": 1252,
      "ed": 1253,
      "ext\n": 1254,
      "_iff": 1255,
      "tru": 1256,
      " hu": 1257,
      "ilter_": 1258,
      "ffine": 1259,
      "_mul_": 1260,
      " rfl\n": 1261,
      " Continuous": 1262,
      " Function.": 1263,
      "congr_": 1264,
      "las": 1265,
      "Or": 1266,
      "ructor": 1267,
      "[X": 1268,
      "constructor": 1269,
      " 2)": 1270,
      "rom": 1271,
      " P)": 1272,
      "comm]\n": 1273,
      "span": 1274,
      "able": 1275,
      " (u": 1276,
      " i,": 1277,
      "ag": 1278,
      "e,": 1279,
      " ab": 1280,
      " Prop)": 1281,
      "ast": 1282,
      " (Y": 1283,
      " Comple": 1284,
      " σ": 1285,
      "']\n": 1286,
      " coe_": 1287,
      "ant": 1288,
      "ry": 1289,
      "∞)": 1290,
      ".mpr": 1291,
      " ∫": 1292,
      "Lef": 1293,
      " (B": 1294,
      "nd_": 1295,
      "raph": 1296,
      " rfl⟩": 1297,
      "nti": 1298,
      "ct_": 1299,
      "ari": 1300,
      " ⊆": 1301,
      " simpa": 1302,
      "pply": 1303,
      "dicat": 1304,
      " (z": 1305,
      "degre": 1306,
      "Cha": 1307,
      "a,": 1308,
      "nel": 1309,
      "bi": 1310,
      "ou": 1311,
      " hk": 1312,
      "tinuous_": 1313,
      " (1": 1314,
      " Ten": 1315,
      "heaf": 1316,
      " apply": 1317,
      " ⥤": 1318,
      " Measurable": 1319,
      " div": 1320,
      "one]\n": 1321,
      ".mk": 1322,
      "erm": 1323,
      ")]\n": 1324,
      " ∂μ": 1325,
      "cancel": 1326,
      " ∩": 1327,
      "Serie": 1328,
      "ack": 1329,
      "grable": 1330,
      "ke": 1331,
      "neg,": 1332,
      "alization": 1333,
      "'_": 1334,
      "ner": 1335,
      " have": 1336,
      "dex": 1337,
      " (Nat.": 1338,
      "duct": 1339,
      "'.": 1340,
      "ring": 1341,
      "closure": 1342,
      " h.": 1343,
      "deal": 1344,
      " Y)": 1345,
      " ⟨fun": 1346,
      " ∑": 1347,
      "dding": 1348,
      "smul": 1349,
      "bedding": 1350,
      " ↥": 1351,
      "Eq": 1352,
      " (H": 1353,
      " sub_": 1354,
      "e_of_": 1355,
      "succ_": 1356,
      "rate": 1357,
      "cancel_": 1358,
      "sup_": 1359,
      "tri": 1360,
      "tiv": 1361,
      "ces": 1362,
      "ical": 1363,
      "₂,": 1364,
      " f.": 1365,
      "c.": 1366,
      "Sum": 1367,
      "exp": 1368,
      "dist": 1369,
      "onoid": 1370,
      "Uni": 1371,
      " of": 1372,
      "lgebra.": 1373,
      "arti": 1374,
      "Of_": 1375,
      "_,": 1376,
      "gral": 1377,
      "Ab": 1378,
      " S)": 1379,
      " map": 1380,
      " (N": 1381,
      "at_": 1382,
      "congr\n": 1383,
      "[X])": 1384,
      " (hf": 1385,
      " Simple": 1386,
      "constructor\n": 1387,
      "y,": 1388,
      "Complex": 1389,
      " 0)": 1390,
      "def,": 1391,
      "Icc": 1392,
      "Lim": 1393,
      "insert": 1394,
      " ℝ≥0∞)": 1395,
      " ℂ)": 1396,
      " @": 1397,
      "intype": 1398,
      " (V": 1399,
      " _,": 1400,
      " K)": 1401,
      "comp,": 1402,
      " neg_": 1403,
      "rase": 1404,
      "joint_": 1405,
      " h'": 1406,
      "Diff": 1407,
      " LinearMap.": 1408,
      "min": 1409,
      "easurable_": 1410,
      " ⇑": 1411,
      "sub_eq_": 1412,
      " n,": 1413,
      "easure_": 1414,
      "sion": 1415,
      " ⟨x,": 1416,
      "back": 1417,
      "ff_": 1418,
      "ift_": 1419,
      "suppor": 1420,
      " ?_,": 1421,
      "coeff_": 1422,
      "old": 1423,
      "ron": 1424,
      "ullback": 1425,
      " p)": 1426,
      " p.": 1427,
      "imp": 1428,
      "Measurable": 1429,
      " δ": 1430,
      "lift": 1431,
      "ology": 1432,
      " }": 1433,
      "iel": 1434,
      "e_eq_": 1435,
      " π": 1436,
      "nge": 1437,
      "ounde": 1438,
      " pow_": 1439,
      " Tendsto": 1440,
      "i.": 1441,
      "dsimp": 1442,
      "coun": 1443,
      "smul,": 1444,
      "_nonneg": 1445,
      "sor": 1446,
      "hd": 1447,
      "Finite": 1448,
      "Finset.": 1449,
      "ycle": 1450,
      "sig": 1451,
      " w)": 1452,
      "Submodule": 1453,
      " [s": 1454,
      "wap": 1455,
      " hj": 1456,
      "root": 1457,
      " x,": 1458,
      "sur": 1459,
      "verse": 1460,
      " hq": 1461,
      "On_": 1462,
      " ''": 1463,
      " ⟨⟨": 1464,
      "equiv": 1465,
      " intro": 1466,
      " c)": 1467,
      "Norm": 1468,
      "Mul": 1469,
      " hv": 1470,
      "FDeriv": 1471,
      "_left": 1472,
      " Has": 1473,
      " ⁻¹": 1474,
      "tive": 1475,
      " Ω": 1476,
      "ame": 1477,
      " ⋯": 1478,
      "[R": 1479,
      "subtype": 1480,
      "art": 1481,
      " Ordinal.": 1482,
      "etri": 1483,
      "_le": 1484,
      "i,": 1485,
      "suff": 1486,
      ").2": 1487,
      "Add": 1488,
      " (q": 1489,
      "continuous": 1490,
      "trans_": 1491,
      "suffi": 1492,
      "{u": 1493,
      " h]\n": 1494,
      "s\n": 1495,
      "Right": 1496,
      "inj": 1497,
      "Functor": 1498,
      "hds_": 1499,
      "b,": 1500,
      "onempty": 1501,
      "ero": 1502,
      "Multi": 1503,
      " ⟨_,": 1504,
      "p,": 1505,
      "dicator": 1506,
      " ⁻¹'": 1507,
      "_ne_zero": 1508,
      "cases'": 1509,
      " 1\n": 1510,
      "tation": 1511,
      " g)": 1512,
      "Matri": 1513,
      " n\n": 1514,
      "[R]": 1515,
      "s]\n": 1516,
      "Aux": 1517,
      "war": 1518,
      "Left": 1519,
      ").to": 1520,
      " (j": 1521,
      "suffices": 1522,
      "filter_": 1523,
      "map,": 1524,
      " ⊤": 1525,
      "posi": 1526,
      "dist_": 1527,
      " refine": 1528,
      "const_": 1529,
      "Sup_": 1530,
      "intype.": 1531,
      "Zero": 1532,
      " (𝓝": 1533,
      "row": 1534,
      "finrank": 1535,
      "Hom.": 1536,
      " dis": 1537,
      "joint": 1538,
      "sedB": 1539,
      "lin": 1540,
      " i\n": 1541,
      "polog": 1542,
      "group": 1543,
      "contra": 1544,
      "mbedding": 1545,
      "ssoc": 1546,
      "injective": 1547,
      " (φ": 1548,
      "n_": 1549,
      "1,": 1550,
      "choo": 1551,
      "ure": 1552,
      "support": 1553,
      "Graph": 1554,
      "ere": 1555,
      "c\n": 1556,
      "assoc]\n": 1557,
      " (w": 1558,
      "Ico": 1559,
      " (D": 1560,
      "Set_": 1561,
      "length": 1562,
      "coe,": 1563,
      "fal": 1564,
      "uotien": 1565,
      "diff": 1566,
      "eq]\n": 1567,
      "bot": 1568,
      " (γ": 1569,
      " [Nat.": 1570,
      " and_": 1571,
      "vP": 1572,
      " Multiset.": 1573,
      "itt": 1574,
      "lt_of_": 1575,
      "natDegre": 1576,
      ".Is": 1577,
      "id_": 1578,
      " Matrix.": 1579,
      "prime": 1580,
      "orph": 1581,
      "_eq_zero": 1582,
      " Complex.": 1583,
      "atTop": 1584,
      " Mo": 1585,
      "rong": 1586,
      ".eq_": 1587,
      " hd": 1588,
      "strict_": 1589,
      " hl": 1590,
      "oi": 1591,
      " (mem_": 1592,
      "_right": 1593,
      "then": 1594,
      " Subtype": 1595,
      "Nat": 1596,
      "ance": 1597,
      " [this": 1598,
      "c,": 1599,
      " t)": 1600,
      " pro": 1601,
      "lassi": 1602,
      ").trans": 1603,
      "appen": 1604,
      "tic": 1605,
      "ace": 1606,
      "angle_": 1607,
      "Complex.": 1608,
      "sity": 1609,
      "actori": 1610,
      " 𝕜)": 1611,
      ".co": 1612,
      "sq": 1613,
      " [add_": 1614,
      "Inde": 1615,
      "preimage_": 1616,
      "diff_": 1617,
      "Inf": 1618,
      "succ,": 1619,
      " [L": 1620,
      "inf": 1621,
      "pow,": 1622,
      "induction'": 1623,
      "conv": 1624,
      " SimpleGraph": 1625,
      " h2": 1626,
      " 3": 1627,
      "single": 1628,
      "coeff": 1629,
      "erenti": 1630,
      "Cast": 1631,
      "ck": 1632,
      ").1": 1633,
      "n,": 1634,
      "_num": 1635,
      "Embedding": 1636,
      "lg": 1637,
      "onal": 1638,
      " hab": 1639,
      "eom": 1640,
      "prim": 1641,
      " Nat.cast_": 1642,
      " R[X])": 1643,
      "tivity": 1644,
      "isymm": 1645,
      "sub,": 1646,
      "root_": 1647,
      "compl_": 1648,
      " [Finset.": 1649,
      "que": 1650,
      "antisymm": 1651,
      " B)": 1652,
      " ω": 1653,
      " Ring": 1654,
      " (W": 1655,
      "mpr": 1656,
      "and_": 1657,
      "monoid": 1658,
      "positivity": 1659,
      "choose": 1660,
      "poly": 1661,
      "pi_": 1662,
      "rt": 1663,
      "Limit": 1664,
      ".hom": 1665,
      " j)": 1666,
      " ▸": 1667,
      "_nat": 1668,
      "s_of_": 1669,
      "Po": 1670,
      "ega": 1671,
      ".m": 1672,
      "supp.": 1673,
      " Lie": 1674,
      "ise": 1675,
      " ima": 1676,
      " ?_)\n": 1677,
      " k)": 1678,
      "Seq": 1679,
      "date": 1680,
      "0,": 1681,
      " (d": 1682,
      "etry": 1683,
      "Group": 1684,
      ".n": 1685,
      "wards": 1686,
      " (map": 1687,
      "Den": 1688,
      " Ideal.": 1689,
      "rivi": 1690,
      "_1": 1691,
      "omega": 1692,
      "kernel": 1693,
      "upwards": 1694,
      " ⟨a,": 1695,
      "iff]": 1696,
      " α),": 1697,
      "Matrix": 1698,
      " inv_": 1699,
      " mk": 1700,
      "_re": 1701,
      "Ad": 1702,
      "Pa": 1703,
      "raction": 1704,
      " de": 1705,
      "support_": 1706,
      "ext_": 1707,
      "))\n": 1708,
      "ce_": 1709,
      "ome": 1710,
      "ber": 1711,
      " ν": 1712,
      "Uniform": 1713,
      "ption": 1714,
      "gene": 1715,
      " ↑n": 1716,
      "Inf_": 1717,
      " 0\n": 1718,
      " a,": 1719,
      "eta": 1720,
      " univ": 1721,
      " IH": 1722,
      "X_": 1723,
      "dvd": 1724,
      " hw": 1725,
      "bin": 1726,
      "arith": 1727,
      " ⊢": 1728,
      "compl": 1729,
      "arg": 1730,
      "od": 1731,
      "wer": 1732,
      "_pos": 1733,
      "pr": 1734,
      " tru": 1735,
      "Basi": 1736,
      "p.": 1737,
      "tom": 1738,
      "Ten": 1739,
      "⟩⟩\n": 1740,
      "uotient.": 1741,
      "ree": 1742,
      "ular": 1743,
      "filter": 1744,
      " H\n": 1745,
      "add]\n": 1746,
      "order": 1747,
      "rongly": 1748,
      "tar": 1749,
      "how": 1750,
      ".succ": 1751,
      " clo": 1752,
      " →ₗ": 1753,
      " lt_": 1754,
      "Ioc": 1755,
      "uni": 1756,
      "sedBall": 1757,
      " ⊢\n": 1758,
      "rpow_": 1759,
      " hxy": 1760,
      ".obj": 1761,
      "Localization": 1762,
      " b,": 1763,
      " dist": 1764,
      " (Fin": 1765,
      "apply_": 1766,
      "main": 1767,
      " γ)": 1768,
      "6)": 1769,
      " for": 1770,
      " Set.mem_": 1771,
      "disjoint_": 1772,
      " ∨": 1773,
      "Density": 1774,
      "Ro": 1775,
      "pos.": 1776,
      "eval": 1777,
      " [Set.": 1778,
      "erase": 1779,
      "dule.": 1780,
      "el": 1781,
      " (le_": 1782,
      " [f": 1783,
      ").hom": 1784,
      "sheaf": 1785,
      " 1))": 1786,
      "Product": 1787,
      "pect": 1788,
      "forall_": 1789,
      "plit": 1790,
      " (σ": 1791,
      "haveI": 1792,
      "lu": 1793,
      "cons,": 1794,
      ".of_": 1795,
      " ::": 1796,
      " u_6)": 1797,
      " i))": 1798,
      "Monoid": 1799,
      "₂_": 1800,
      "Ex": 1801,
      "erentiable": 1802,
      "ush": 1803,
      "Tran": 1804,
      "Basis": 1805,
      " MvP": 1806,
      "preimage": 1807,
      " D)": 1808,
      "use": 1809,
      "multi": 1810,
      "ounded": 1811,
      "mon": 1812,
      "change": 1813,
      "ae_": 1814,
      " (Q": 1815,
      "Li": 1816,
      "gc": 1817,
      "left,": 1818,
      "omm": 1819,
      ").symm\n": 1820,
      "_singleton": 1821,
      " L)": 1822,
      " Equiv": 1823,
      " (J": 1824,
      " tendsto_": 1825,
      "le,": 1826,
      " norm_": 1827,
      "au": 1828,
      "gen": 1829,
      ".ne": 1830,
      "ase": 1831,
      "_apply]\n": 1832,
      " with\n": 1833,
      "forall": 1834,
      " Matrix": 1835,
      " ¬": 1836,
      "Like": 1837,
      "nn": 1838,
      "unit": 1839,
      " hs\n": 1840,
      " u₁)": 1841,
      "hift": 1842,
      " (o": 1843,
      "Integral_": 1844,
      " (_": 1845,
      "no": 1846,
      "apply]\n": 1847,
      "sc": 1848,
      " h1": 1849,
      " Hom": 1850,
      " ≃": 1851,
      " hP": 1852,
      " ⟨i,": 1853,
      " sum_": 1854,
      " (algebraMap": 1855,
      " (2": 1856,
      "ord": 1857,
      "Succ": 1858,
      "Inter": 1859,
      "lse": 1860,
      "exp_": 1861,
      "_subset_": 1862,
      "Form": 1863,
      "erw": 1864,
      " (con": 1865,
      "mod_": 1866,
      " ⊗": 1867,
      "omain": 1868,
      "diag": 1869,
      "eq_zero": 1870,
      " Sort": 1871,
      "inv,": 1872,
      "nec": 1873,
      "ast_": 1874,
      " Fintype.": 1875,
      "place": 1876,
      " ?_)": 1877,
      " simp\n": 1878,
      "le_of_lt": 1879,
      "pose": 1880,
      "hain": 1881,
      " i).": 1882,
      "_self": 1883,
      " ↥(": 1884,
      "];": 1885,
      "ss": 1886,
      " ∣": 1887,
      " 𝓝": 1888,
      " then": 1889,
      " m)": 1890,
      "ardinal.": 1891,
      " (Z": 1892,
      "f_pos": 1893,
      " (Set.": 1894,
      "_add_": 1895,
      "₁₂": 1896,
      "exten": 1897,
      " f'": 1898,
      ".exists_": 1899,
      "ale": 1900,
      "aux": 1901,
      "update": 1902,
      " \\": 1903,
      "rated": 1904,
      " (Finse": 1905,
      "power": 1906,
      " Pi.": 1907,
      " hx,": 1908,
      " N)": 1909,
      " else": 1910,
      " →+": 1911,
      " atTop": 1912,
      "ofReal": 1913,
      "Series": 1914,
      " ℚ": 1915,
      "nonempty": 1916,
      "fold": 1917,
      "ner_": 1918,
      " ∪": 1919,
      "Ob": 1920,
      "ofReal_": 1921,
      " ∏": 1922,
      "Continuous": 1923,
      "etric": 1924,
      " t,": 1925,
      "Compact": 1926,
      ".app": 1927,
      "rpow": 1928,
      "₀,": 1929,
      "Int.": 1930,
      " di": 1931,
      "Homology": 1932,
      "hs": 1933,
      " hU": 1934,
      ".restrict": 1935,
      " hf\n": 1936,
      "₁.": 1937,
      "alk": 1938,
      "surjective": 1939,
      "mem_nhds": 1940,
      " he": 1941,
      "Ideal": 1942,
      " mul_assoc,": 1943,
      "Close": 1944,
      "WithinAt": 1945,
      " n).": 1946,
      " ⟨y,": 1947,
      "setOf_": 1948,
      "iate": 1949,
      "_f": 1950,
      " (T": 1951,
      "prime_": 1952,
      "cycle": 1953,
      " range": 1954,
      "it.": 1955,
      "open": 1956,
      " Linear": 1957,
      "plit_": 1958,
      "Equiv.": 1959,
      " (0": 1960,
      "insert_": 1961,
      "Finset": 1962,
      "linear": 1963,
      " t.": 1964,
      "Fiel": 1965,
      " x))": 1966,
      "star": 1967,
      " hy\n": 1968,
      "filter_upwards": 1969,
      "integral": 1970,
      "act_": 1971,
      " rwa": 1972,
      " r)": 1973,
      "Div": 1974,
      " ‖f": 1975,
      ".inr": 1976,
      "artial": 1977,
      "v,": 1978,
      "ector": 1979,
      "top_": 1980,
      " ⊥": 1981,
      " (norm": 1982,
      ".mono": 1983,
      " card_": 1984,
      "jectiv": 1985,
      "ower": 1986,
      "₂\n": 1987,
      " [map_": 1988,
      " (is": 1989,
      " κ": 1990,
      "comp]\n": 1991,
      "Val": 1992,
      " Add": 1993,
      "bot_": 1994,
      "ip": 1995,
      " pre": 1996,
      "univ,": 1997,
      "angle": 1998,
      "mea": 1999,
      "eq_of_": 2000,
      "Indepen": 2001,
      "f,": 2002,
      "lift_": 2003,
      " Cardinal.": 2004,
      " if": 2005,
      "Closure": 2006,
      "with": 2007,
      " x‖": 2008,
      "cons_": 2009,
      "Cast_": 2010,
      " {x": 2011,
      " →+*": 2012,
      "ventually_": 2013,
      "degree_": 2014,
      " a\n": 2015,
      "cons": 2016,
      "rum": 2017,
      "pectrum": 2018,
      "rec": 2019,
      "plit_if": 2020,
      "Algebra": 2021,
      "mk,": 2022,
      " inter_": 2023,
      " x).": 2024,
      "_lt_": 2025,
      "Num": 2026,
      " min": 2027,
      "At.": 2028,
      "inf_": 2029,
      " Subgroup": 2030,
      "Span": 2031,
      "div,": 2032,
      "comp_apply,": 2033,
      ".inl": 2034,
      "hort": 2035,
      "hom_": 2036,
      "adjoin": 2037,
      ".1,": 2038,
      "d]\n": 2039,
      "pec": 2040,
      "pos_of_": 2041,
      " hI": 2042,
      " ite": 2043,
      "swap": 2044,
      " comp_": 2045,
      "calar": 2046,
      "interi": 2047,
      " forall_": 2048,
      "Topolog": 2049,
      " hn\n": 2050,
      " [e": 2051,
      "ingCo": 2052,
      "_b": 2053,
      "olu": 2054,
      ")).": 2055,
      "right,": 2056,
      "refl": 2057,
      "ool": 2058,
      "replace": 2059,
      "Domain": 2060,
      "uotient": 2061,
      "Order": 2062,
      "le\n": 2063,
      " prod_": 2064,
      "Categ": 2065,
      " [h]\n": 2066,
      "L[": 2067,
      " Finset.sum_": 2068,
      " [P": 2069,
      " eval": 2070,
      "Within_": 2071,
      " (Finset.": 2072,
      "false": 2073,
      "itz": 2074,
      "Mod": 2075,
      "uniform": 2076,
      "ological": 2077,
      "iSup": 2078,
      "toL": 2079,
      "stance": 2080,
      "le_iff_": 2081,
      "lintegral_": 2082,
      " hμ": 2083,
      "Integral": 2084,
      " Fin.": 2085,
      "ring\n": 2086,
      "tho": 2087,
      "trivi": 2088,
      "abs_": 2089,
      "io": 2090,
      " from": 2091,
      "j,": 2092,
      "adic": 2093,
      " (in": 2094,
      "easurableSet_": 2095,
      " hS": 2096,
      "smul]\n": 2097,
      "neg]\n": 2098,
      "aco": 2099,
      "split_if": 2100,
      "ut": 2101,
      "vex": 2102,
      "mod": 2103,
      " Ordinal.{u": 2104,
      " integral_": 2105,
      "cide": 2106,
      "redu": 2107,
      "at)": 2108,
      "congr_arg": 2109,
      " eq": 2110,
      "tal": 2111,
      "Function.": 2112,
      ".p": 2113,
      " Algebra.": 2114,
      " hi\n": 2115,
      "def]\n": 2116,
      "ronglyMeasurable": 2117,
      "ata": 2118,
      "Hom.map_": 2119,
      "Abo": 2120,
      "tDiff": 2121,
      "ix": 2122,
      "limit": 2123,
      " Option": 2124,
      "plic": 2125,
      " Subtype.": 2126,
      "Rel": 2127,
      " max": 2128,
      "ound": 2129,
      ".2\n": 2130,
      "olynomial": 2131,
      "Factor": 2132,
      "_eq_of_": 2133,
      " Finset.mem_": 2134,
      " _root_": 2135,
      " subset_": 2136,
      " abs_": 2137,
      " ⊓": 2138,
      ".fst": 2139,
      "subst": 2140,
      "r,": 2141,
      " H)": 2142,
      ".elim": 2143,
      "Prime": 2144,
      " Ω)": 2145,
      " ⊔": 2146,
      " has": 2147,
      " ha\n": 2148,
      " ring": 2149,
      "Scalar": 2150,
      "m,": 2151,
      "amma": 2152,
      ".a": 2153,
      "No": 2154,
      "ute": 2155,
      "trict": 2156,
      "1\n": 2157,
      "s)": 2158,
      "sin": 2159,
      " ⟨n,": 2160,
      "Ar": 2161,
      " (⇑": 2162,
      " Finsupp.": 2163,
      "eight": 2164,
      " [(": 2165,
      " [h,": 2166,
      " hε": 2167,
      ".mul_": 2168,
      ".of": 2169,
      "degree": 2170,
      " h)": 2171,
      "_eq_zero_": 2172,
      "Perm": 2173,
      "Algebra.": 2174,
      " le_antisymm": 2175,
      " image_": 2176,
      "7)": 2177,
      "ve_": 2178,
      "Ioo": 2179,
      "positivity\n": 2180,
      ".comp_": 2181,
      "ange": 2182,
      "omial": 2183,
      " ×ˢ": 2184,
      "ility": 2185,
      " log": 2186,
      " NN": 2187,
      "adingCo": 2188,
      "id,": 2189,
      "le_mul_": 2190,
      "_of_le": 2191,
      " sub_eq_": 2192,
      "_mem": 2193,
      "map]\n": 2194,
      " ∅": 2195,
      "nhds_": 2196,
      " f\n": 2197,
      " ∫⁻": 2198,
      "self,": 2199,
      "inci": 2200,
      ".toL": 2201,
      "lock": 2202,
      "integrable": 2203,
      "ami": 2204,
      " h)\n": 2205,
      "incip": 2206,
      "isor": 2207,
      "ist_": 2208,
      " ofReal_": 2209,
      "grable_": 2210,
      " continuous_": 2211,
      "Ioi": 2212,
      " f).": 2213,
      "eve": 2214,
      " y,": 2215,
      "cen": 2216,
      "Trans": 2217,
      " u_7)": 2218,
      " nat": 2219,
      "Tensor": 2220,
      " z)": 2221,
      "p\n": 2222,
      " (U": 2223,
      "Subtype": 2224,
      "zation": 2225,
      "irw": 2226,
      "calc\n": 2227,
      "amily": 2228,
      " y\n": 2229,
      "Inv": 2230,
      "restrict": 2231,
      "lower": 2232,
      "lt_one": 2233,
      " [eq_": 2234,
      "ernel": 2235,
      " Pre": 2236,
      " hij": 2237,
      "onic": 2238,
      "biUnion": 2239,
      " (π": 2240,
      "indicator": 2241,
      "Elem": 2242,
      "artition": 2243,
      ".symm\n": 2244,
      "_iff,": 2245,
      "tone": 2246,
      " hT": 2247,
      " hs.": 2248,
      "ability": 2249,
      "natDegree": 2250,
      "₂.": 2251,
      " Bool": 2252,
      "omega\n": 2253,
      "del": 2254,
      "Closed_": 2255,
      " [i": 2256,
      ".length": 2257,
      " Comp": 2258,
      " →ₗ[R]": 2259,
      " Category.": 2260,
      "ym": 2261,
      " (rfl": 2262,
      "rier": 2263,
      " span": 2264,
      "ssociate": 2265,
      " ext": 2266,
      "bability": 2267,
      "smul_eq_": 2268,
      "iterate": 2269,
      "Cur": 2270,
      " Ideal": 2271,
      "alized": 2272,
      " coeff_": 2273,
      "fst": 2274,
      " fin": 2275,
      " f,": 2276,
      "zero]": 2277,
      " [is": 2278,
      " ha,": 2279,
      " Prod.": 2280,
      " Module.": 2281,
      "Root": 2282,
      " x.": 2283,
      "Open_": 2284,
      "u,": 2285,
      " S.": 2286,
      " closure": 2287,
      "k,": 2288,
      "ser": 2289,
      " Submonoid": 2290,
      "Sem": 2291,
      "split_ifs": 2292,
      "rat": 2293,
      "Func": 2294,
      " NNReal.": 2295,
      " Affine": 2296,
      "oangle_": 2297,
      " (Is": 2298,
      "cate": 2299,
      " I)": 2300,
      "_on": 2301,
      "mk_": 2302,
      "By": 2303,
      "eme": 2304,
      "f_neg": 2305,
      " sq": 2306,
      " [pow_": 2307,
      " Homological": 2308,
      "od_": 2309,
      "rn": 2310,
      " ‖x": 2311,
      "Iic": 2312,
      "eff": 2313,
      "Nonempty": 2314,
      "WithinAt_": 2315,
      " τ": 2316,
      "_symm": 2317,
      " Inte": 2318,
      "le_add_": 2319,
      "𝕜]": 2320,
      " (∀": 2321,
      "ram": 2322,
      " With": 2323,
      "ary": 2324,
      "Iso_": 2325,
      "distri": 2326,
      "Degree_": 2327,
      "Measure.": 2328,
      " (mul_": 2329,
      " Coc": 2330,
      "acobi": 2331,
      "imal": 2332,
      "Integr": 2333,
      " ℝ≥0)": 2334,
      "norm_num": 2335,
      " id": 2336,
      "tail": 2337,
      "right]\n": 2338,
      "lassical": 2339,
      " Equiv.": 2340,
      "jective_": 2341,
      " a.": 2342,
      "conj": 2343,
      ")))": 2344,
      "cast\n": 2345,
      "ax": 2346,
      "eval_": 2347,
      " hf.": 2348,
      "div_two": 2349,
      " Z)": 2350,
      "Limits.": 2351,
      "dual": 2352,
      "Unit_": 2353,
      "closedBall": 2354,
      "out": 2355,
      "X,": 2356,
      "comap_": 2357,
      ").comp": 2358,
      " Multiset": 2359,
      "Big": 2360,
      "BigO": 2361,
      " ⋃": 2362,
      " Int.cast_": 2363,
      "tomic": 2364,
      "reduci": 2365,
      "eometry": 2366,
      "itive": 2367,
      " h0": 2368,
      "_norm": 2369,
      " Cochain": 2370,
      "gt": 2371,
      "natAb": 2372,
      "withDensity": 2373,
      "here": 2374,
      "cli": 2375,
      "_of_is": 2376,
      "isjoint": 2377,
      "sum,": 2378,
      " ⨆": 2379,
      "Geometry": 2380,
      "left]\n": 2381,
      "Units.": 2382,
      "iff.2": 2383,
      "Bot": 2384,
      "his": 2385,
      "seq": 2386,
      "table": 2387,
      "g,": 2388,
      "_of_mem": 2389,
      " hJ": 2390,
      "Alg": 2391,
      " (ε": 2392,
      "ortho": 2393,
      " →L[": 2394,
      "duce": 2395,
      "St": 2396,
      " n.": 2397,
      "ngle": 2398,
      " s).": 2399,
      " inf": 2400,
      "ural": 2401,
      "Category.": 2402,
      " η": 2403,
      " St": 2404,
      " Nat.add_": 2405,
      "top,": 2406,
      " CategoryTheory.Limits.": 2407,
      " Filter.": 2408,
      "classical": 2409,
      "Prod": 2410,
      " ContinuousL": 2411,
      "ᵒᵖ": 2412,
      "osi": 2413,
      " _),": 2414,
      " rfl,": 2415,
      " Integrable": 2416,
      "₀)": 2417,
      "From": 2418,
      "pair": 2419,
      "desc": 2420,
      " ge": 2421,
      " finrank": 2422,
      "yclo": 2423,
      " measure_": 2424,
      "cheme": 2425,
      "generate": 2426,
      "yclotomic": 2427,
      " pullback": 2428,
      "chain": 2429,
      "alizer": 2430,
      "cur": 2431,
      "z,": 2432,
      " Submodule.": 2433,
      "ox": 2434,
      ").inv": 2435,
      "orphis": 2436,
      "Id": 2437,
      "product": 2438,
      " hb\n": 2439,
      "Mono": 2440,
      " (co": 2441,
      " G.": 2442,
      "orphism": 2443,
      "Nat_": 2444,
      "Type": 2445,
      " eq_or_": 2446,
      "ual": 2447,
      "sour": 2448,
      "linarith": 2449,
      " 4": 2450,
      "hisker": 2451,
      " b\n": 2452,
      " u_1": 2453,
      " x✝": 2454,
      "of_mem": 2455,
      "single_": 2456,
      " ↑x": 2457,
      " hs,": 2458,
      " Functor": 2459,
      " congr_arg": 2460,
      "measure_": 2461,
      "entation": 2462,
      " [this]\n": 2463,
      ".trans_": 2464,
      " α))": 2465,
      "iff_eq_": 2466,
      "RingHom": 2467,
      "cal.": 2468,
      " sing": 2469,
      "Supp": 2470,
      " [E": 2471,
      "_eq_mul_": 2472,
      " Algebra": 2473,
      "_eq,": 2474,
      " ih\n": 2475,
      "eomorph": 2476,
      "Ideal.": 2477,
      "Sing": 2478,
      "bit": 2479,
      "eigh": 2480,
      "2,": 2481,
      " Monoid": 2482,
      " two": 2483,
      " Qu": 2484,
      " Probability": 2485,
      "eff_": 2486,
      "Closed": 2487,
      "Di": 2488,
      "edSpace": 2489,
      "Cor": 2490,
      "det": 2491,
      "ormal": 2492,
      "lassical.": 2493,
      "adj": 2494,
      "je": 2495,
      "cture": 2496,
      "Topology": 2497,
      "ream": 2498,
      "Simple": 2499,
      ".1\n": 2500,
      " Finite": 2501,
      " n))": 2502,
      " lin": 2503,
      "osition": 2504,
      " (κ": 2505,
      " j\n": 2506,
      "perty": 2507,
      "ift.": 2508,
      "exact\n": 2509,
      "ity_": 2510,
      "lt_top": 2511,
      "Subalgebra": 2512,
      "tate": 2513,
      " Sum": 2514,
      ".snd": 2515,
      "pose!": 2516,
      "_to": 2517,
      "sigma": 2518,
      "Curve": 2519,
      "_zero": 2520,
      "hape": 2521,
      "sch": 2522,
      " true": 2523,
      "ei": 2524,
      "nected": 2525,
      "are": 2526,
      "₁\n": 2527,
      " mul_comm": 2528,
      "summa": 2529,
      "ick": 2530,
      "_comp": 2531,
      "anti": 2532,
      " succ": 2533,
      " hB": 2534,
      " [Is": 2535,
      " <;>\n": 2536,
      " dist_": 2537,
      " s\n": 2538,
      ".prod": 2539,
      " ι),": 2540,
      "igma": 2541,
      " x_1": 2542,
      "LE": 2543,
      "id]\n": 2544,
      ".t": 2545,
      "ratedFDeriv": 2546,
      "orthog": 2547,
      "Integral.": 2548,
      " ⋙": 2549,
      "Th": 2550,
      "measure": 2551,
      "unfold": 2552,
      "natCast": 2553,
      "true,": 2554,
      "perm": 2555,
      "Quotient.": 2556,
      " ∉": 2557,
      "actorization": 2558,
      "sign": 2559,
      " deriv": 2560,
      "Prim": 2561,
      " inf_": 2562,
      "center": 2563,
      " %": 2564,
      "_l": 2565,
      "index": 2566,
      "empty,": 2567,
      " le": 2568,
      "fintype": 2569,
      " set": 2570,
      "integrable_": 2571,
      "Char": 2572,
      " ⇑(": 2573,
      "snd": 2574,
      " (Ω": 2575,
      " this,": 2576,
      "SMul": 2577,
      " Alg": 2578,
      "union_": 2579,
      "pi_div_two": 2580,
      " ProbabilityTheory.": 2581,
      "One": 2582,
      "size": 2583,
      "interval": 2584,
      "Comm": 2585,
      "Game": 2586,
      "letI": 2587,
      "space": 2588,
      " hA": 2589,
      "rou": 2590,
      "self]\n": 2591,
      "two_": 2592,
      "Data": 2593,
      "finset_": 2594,
      "asis.": 2595,
      "Like.": 2596,
      "fc": 2597,
      "of_is": 2598,
      " lt_of_": 2599,
      " a).": 2600,
      " measurable_": 2601,
      " :\n": 2602,
      " (to": 2603,
      "For": 2604,
      " Icc": 2605,
      " μ)": 2606,
      " ←\n": 2607,
      " IsOpen": 2608,
      "iff.1": 2609,
      " comp": 2610,
      "le]\n": 2611,
      "poten": 2612,
      "_nonempty": 2613,
      "multiplic": 2614,
      "Obj": 2615,
      "uation": 2616,
      "Field.": 2617,
      "elim": 2618,
      "l,": 2619,
      "run": 2620,
      " ⟨b,": 2621,
      "Spa": 2622,
      "s'": 2623,
      " (ν": 2624,
      " ++": 2625,
      " []": 2626,
      "Degree": 2627,
      "Basis.": 2628,
      " eq_or_ne": 2629,
      "rnDeriv": 2630,
      "_of_not_": 2631,
      "Independen": 2632,
      " hF": 2633,
      "left\n": 2634,
      " le_of_": 2635,
      " (range": 2636,
      " le_trans": 2637,
      " norm_num": 2638,
      "ent_": 2639,
      "Lp": 2640,
      " sin": 2641,
      "har": 2642,
      " --": 2643,
      " eval_": 2644,
      "Hom_": 2645,
      "Sepa": 2646,
      " })": 2647,
      "‖₊": 2648,
      " hV": 2649,
      " h₃": 2650,
      "Finset_": 2651,
      " coun": 2652,
      "unique": 2653,
      "Sq": 2654,
      "stance\n": 2655,
      "ball": 2656,
      " ⟨s,": 2657,
      " Loc": 2658,
      " le_rfl": 2659,
      "limit.": 2660,
      "age": 2661,
      ").ne": 2662,
      " x₀": 2663,
      "norm_eq_": 2664,
      "']": 2665,
      " (𝟙": 2666,
      " sub": 2667,
      "⟩)": 2668,
      "Arrow": 2669,
      "_neg": 2670,
      "dge": 2671,
      "continuous_": 2672,
      "ourier": 2673,
      "true": 2674,
      "Max": 2675,
      "Shape": 2676,
      "_succ": 2677,
      "split": 2678,
      "⟩)\n": 2679,
      "rop": 2680,
      "adra": 2681,
      "stra": 2682,
      "monomial": 2683,
      " a'": 2684,
      " _⟩\n": 2685,
      " smul_eq_": 2686,
      "fle": 2687,
      " [Fin": 2688,
      "d_eq_": 2689,
      "castSucc": 2690,
      "stru": 2691,
      "hasDeriv": 2692,
      " MvPolynomial.": 2693,
      "basi": 2694,
      "of_mem_": 2695,
      "of_nonneg": 2696,
      "ening": 2697,
      " hp\n": 2698,
      "ne_top": 2699,
      " true_": 2700,
      "ickening": 2701,
      ".pre": 2702,
      "dsimp\n": 2703,
      " [re": 2704,
      " hfg": 2705,
      "ay": 2706,
      "wise": 2707,
      "norm_num\n": 2708,
      "measurable": 2709,
      "Series.": 2710,
      " (∑": 2711,
      ").map": 2712,
      "right\n": 2713,
      " {a": 2714,
      " [List.": 2715,
      "adratic": 2716,
      "ih": 2717,
      " (δ": 2718,
      " xs": 2719,
      " ⟨(": 2720,
      ".d": 2721,
      "_mem_": 2722,
      " simp_rw": 2723,
      "Homo": 2724,
      " p₁": 2725,
      " or_": 2726,
      "angu": 2727,
      "affine": 2728,
      "cre": 2729,
      "inde": 2730,
      "iece": 2731,
      ".mul": 2732,
      "symm\n": 2733,
      " (min": 2734,
      " ENNReal.coe_": 2735,
      " MeasurableSet": 2736,
      " #": 2737,
      "ometry": 2738,
      "erstra": 2739,
      "eierstra": 2740,
      "eierstrass": 2741,
      " Uniform": 2742,
      " up": 2743,
      "comm]": 2744,
      ".inj": 2745,
      "anguage": 2746,
      "eierstrassCurve": 2747,
      " [*": 2748,
      "pow_eq_": 2749,
      "er_in": 2750,
      "source": 2751,
      "rientation": 2752,
      "etric.": 2753,
      "differentiable": 2754,
      "Zeta": 2755,
      "mpty": 2756,
      " .": 2757,
      "_comp_": 2758,
      " h⟩\n": 2759,
      "Top_": 2760,
      "pos,": 2761,
      " [this,": 2762,
      "sepa": 2763,
      " (hx": 2764,
      "coe]\n": 2765,
      " θ": 2766,
      ".ι": 2767,
      " Order": 2768,
      "go": 2769,
      "cone": 2770,
      "prop": 2771,
      " zero": 2772,
      "Bounded": 2773,
      "ted_": 2774,
      " [Function.": 2775,
      " u₂)": 2776,
      "iff.mp": 2777,
      " this]\n": 2778,
      "Ici": 2779,
      "graph": 2780,
      "Pair": 2781,
      "Fraction": 2782,
      " =\n": 2783,
      "nil": 2784,
      " WeierstrassCurve": 2785,
      "diagonal": 2786,
      "peci": 2787,
      ".refl": 2788,
      " hK": 2789,
      " (hg": 2790,
      "princip": 2791,
      " 𝒜": 2792,
      "Empty": 2793,
      "push": 2794,
      "gcongr\n": 2795,
      "ide": 2796,
      "iInter": 2797,
      " a))": 2798,
      "factor": 2799,
      "Homeomorph": 2800,
      " [hf": 2801,
      " inv": 2802,
      "₃)": 2803,
      " 0,": 2804,
      "natDegree_": 2805,
      " f_": 2806,
      " ⟨c,": 2807,
      " h₂\n": 2808,
      " rintro": 2809,
      "Diag": 2810,
      "trivial": 2811,
      " hy,": 2812,
      " _)]\n": 2813,
      "inorm": 2814,
      " →₀": 2815,
      "ircle": 2816,
      " ⟨t,": 2817,
      " Algebraic": 2818,
      "Iio": 2819,
      "det_": 2820,
      "code": 2821,
      " (hs": 2822,
      " //": 2823,
      "tsub_": 2824,
      "Bi": 2825,
      "_all": 2826,
      " as": 2827,
      " Iso": 2828,
      "Injective": 2829,
      " MeasurableSpace": 2830,
      " 1,": 2831,
      "Module": 2832,
      ".inv": 2833,
      "span_singleton": 2834,
      " Vector": 2835,
      ".span": 2836,
      "finite_": 2837,
      "Sheaf": 2838,
      "lt,": 2839,
      " en": 2840,
      "Filter": 2841,
      "Gen": 2842,
      "Ve": 2843,
      "oth": 2844,
      "ot.": 2845,
      " hφ": 2846,
      "d_simp": 2847,
      " ht\n": 2848,
      "orthogonal": 2849,
      "},": 2850,
      " [to": 2851,
      ".continuous": 2852,
      ".add": 2853,
      "Has": 2854,
      " h'\n": 2855,
      "le_one": 2856,
      " Finset.prod_": 2857,
      " cast_": 2858,
      "ath": 2859,
      "Submonoid": 2860,
      "_smul,": 2861,
      " ⟪": 2862,
      "gular": 2863,
      " (of": 2864,
      " [one_": 2865,
      " ⟨?_": 2866,
      " (↑(": 2867,
      " SimpleGraph.": 2868,
      "0)": 2869,
      "_inv_": 2870,
      " 𝟙": 2871,
      "Angle": 2872,
      "alse": 2873,
      "eq_zero_": 2874,
      "iff.mpr": 2875,
      "_nhds": 2876,
      "_eq]\n": 2877,
      "comap": 2878,
      " lift_": 2879,
      "image,": 2880,
      "Divisor": 2881,
      "real_": 2882,
      "NNReal": 2883,
      " J)": 2884,
      " lintegral_": 2885,
      "C,": 2886,
      "olume": 2887,
      "il_": 2888,
      "dean": 2889,
      " c,": 2890,
      " f₁": 2891,
      "refine\n": 2892,
      "natCast_": 2893,
      "contrapose!": 2894,
      "irwise": 2895,
      " obtain": 2896,
      "_mul": 2897,
      " mul_one]\n": 2898,
      "Pow": 2899,
      " h₀": 2900,
      "rotate": 2901,
      " star": 2902,
      "point": 2903,
      " 2))": 2904,
      " χ": 2905,
      "not": 2906,
      " hN": 2907,
      " Ico": 2908,
      " Perm": 2909,
      "Family": 2910,
      "Part": 2911,
      "da": 2912,
      "onent": 2913,
      " [ha": 2914,
      "head": 2915,
      "Geometry.": 2916,
      "iInf": 2917,
      "Kernel": 2918,
      " [coe_": 2919,
      " [hx": 2920,
      "Integrable": 2921,
      " positivity": 2922,
      "iSup_": 2923,
      "nth": 2924,
      "rac": 2925,
      "cont": 2926,
      "inv]\n": 2927,
      "mooth": 2928,
      " ℚ)": 2929,
      " [zero_": 2930,
      " x)\n": 2931,
      " β))": 2932,
      "verse_": 2933,
      " LieSubmodule": 2934,
      "extend": 2935,
      "Cycle": 2936,
      "atTop_": 2937,
      "crete": 2938,
      "fiel": 2939,
      "toReal_": 2940,
      " l₂": 2941,
      "lt_iff_": 2942,
      "exists": 2943,
      "Point": 2944,
      " `": 2945,
      "Spectrum": 2946,
      "nd.": 2947,
      "sTo": 2948,
      "ration": 2949,
      "range,": 2950,
      "univ]\n": 2951,
      "schitz": 2952,
      " ⟨x": 2953,
      " Orientation": 2954,
      "Basis_": 2955,
      ".not_": 2956,
      "_mono": 2957,
      ").obj": 2958,
      "one_of_": 2959,
      "ind": 2960,
      " filter_": 2961,
      "Presheaf": 2962,
      "true_": 2963,
      "pological": 2964,
      "classical\n": 2965,
      "er_instance\n": 2966,
      " (Or": 2967,
      " dv": 2968,
      " div_": 2969,
      " linarith": 2970,
      " (@": 2971,
      " Ioo": 2972,
      " Units.": 2973,
      ").mp": 2974,
      " p₂": 2975,
      " _).trans": 2976,
      "gcd": 2977,
      " hne": 2978,
      "tep": 2979,
      "append_": 2980,
      "_is": 2981,
      "ing.": 2982,
      "Affine": 2983,
      " ⟨k,": 2984,
      "Const": 2985,
      " image": 2986,
      "pecialize": 2987,
      ".sub": 2988,
      " hM": 2989,
      " ne_": 2990,
      "commute": 2991,
      "dicator_": 2992,
      "dexp": 2993,
      " [Set.mem_": 2994,
      " Short": 2995,
      "Property": 2996,
      ".injective": 2997,
      "ven": 2998,
      "singleton,": 2999,
      "ixed": 3000,
      " ⨅": 3001,
      " Cᵒᵖ": 3002,
      " [sub_eq_": 3003,
      "zero_of_": 3004,
      " using\n": 3005,
      " hb,": 3006,
      "Pl": 3007,
      "q,": 3008,
      " Rat.": 3009,
      " l)": 3010,
      ".inv_": 3011,
      "ittle": 3012,
      " Γ": 3013,
      "op_": 3014,
      " l₁": 3015,
      " hc\n": 3016,
      " ⟨?_,": 3017,
      "functor": 3018,
      "aeso": 3019,
      "hiftFunctor": 3020,
      "Dist": 3021,
      "Little": 3022,
      " hC": 3023,
      " assoc": 3024,
      "LittleO": 3025,
      "mption": 3026,
      "sumption": 3027,
      "roid": 3028,
      "chy": 3029,
      "loc": 3030,
      " Top": 3031,
      "ventuallyEq": 3032,
      " !": 3033,
      " ψ": 3034,
      " Sem": 3035,
      " ((h": 3036,
      "length_": 3037,
      " Mul": 3038,
      "s_eq_": 3039,
      "tive_": 3040,
      "interior": 3041,
      "Tri": 3042,
      "ator": 3043,
      "univ_": 3044,
      ".restrict_": 3045,
      "Mod.": 3046,
      " Scheme": 3047,
      " [ENNReal.": 3048,
      " (mk": 3049,
      " Classical.": 3050,
      "irst": 3051,
      "distrib": 3052,
      " sup_": 3053,
      " h⟩": 3054,
      "prod,": 3055,
      " ENNReal.ofReal": 3056,
      " congr": 3057,
      "Cone": 3058,
      "ise_": 3059,
      " hf_": 3060,
      " f₂": 3061,
      " lim": 3062,
      "Monic": 3063,
      "ᶠ[": 3064,
      "lt_of_le": 3065,
      " Fintype.card": 3066,
      "phere": 3067,
      " mul_one,": 3068,
      " Basis.": 3069,
      "by_contra": 3070,
      " TopC": 3071,
      ".add_": 3072,
      "b.": 3073,
      "ucli": 3074,
      " Basis": 3075,
      "uclidean": 3076,
      " exp": 3077,
      "Up": 3078,
      "tf": 3079,
      " some": 3080,
      "iteratedFDeriv": 3081,
      "Walk": 3082,
      "f)": 3083,
      "fderiv": 3084,
      "reverse": 3085,
      " x_": 3086,
      "sol": 3087,
      "_of_nonneg": 3088,
      " 2\n": 3089,
      "Fn": 3090,
      "Non": 3091,
      " ⟨u,": 3092,
      " Comm": 3093,
      " hx]\n": 3094,
      " rfl⟩,": 3095,
      " ∀ᶠ": 3096,
      "Subgroup": 3097,
      "singleton]\n": 3098,
      " ↥(kernel": 3099,
      "eighted": 3100,
      " ‹": 3101,
      "ral": 3102,
      " m\n": 3103,
      " hst": 3104,
      "lt_succ": 3105,
      " hm\n": 3106,
      "itting": 3107,
      "'⟩": 3108,
      " [not_": 3109,
      "t.2": 3110,
      "riod": 3111,
      "pow]\n": 3112,
      "proj": 3113,
      " h₁,": 3114,
      "getElem": 3115,
      "congr_fun": 3116,
      "Left_": 3117,
      "convex": 3118,
      "us.": 3119,
      "Unique": 3120,
      "Clas": 3121,
      "iInf_": 3122,
      " [div": 3123,
      "one]": 3124,
      " e\n": 3125,
      "ounded_": 3126,
      "bination": 3127,
      "partition": 3128,
      "mul_eq_": 3129,
      "low": 3130,
      " ∂μ)": 3131,
      "neraliz": 3132,
      " (f₁": 3133,
      "sub_add_": 3134,
      " Complex": 3135,
      "linarith\n": 3136,
      "multiplicity": 3137,
      "rt_": 3138,
      "Coprime": 3139,
      " mul_div_": 3140,
      "false_": 3141,
      "dent": 3142,
      " i)\n": 3143,
      " P.": 3144,
      " mod_": 3145,
      " d)": 3146,
      " hf,": 3147,
      "succ]\n": 3148,
      "Above": 3149,
      "iecewise": 3150,
      " <|\n": 3151,
      "Prod_": 3152,
      "ell": 3153,
      " ρ": 3154,
      "Gamma": 3155,
      "_nhds_": 3156,
      " [smul_": 3157,
      "toReal": 3158,
      "Chart": 3159,
      "Righ": 3160,
      "ractional": 3161,
      "MDiff": 3162,
      "ify": 3163,
      "iff'": 3164,
      " Associate": 3165,
      " q)": 3166,
      "Congr": 3167,
      "_smul": 3168,
      " ring\n": 3169,
      " dvd_": 3170,
      "ifferentiable": 3171,
      " inter_subset_": 3172,
      "rhs": 3173,
      ").mpr": 3174,
      "Locally": 3175,
      " hz\n": 3176,
      " HomologicalComplex": 3177,
      "arrow": 3178,
      " g'": 3179,
      "_spec": 3180,
      "_ne_top": 3181,
      "quare": 3182,
      "Prod.": 3183,
      " ContinuousLinearMap.": 3184,
      "ue": 3185,
      "lt_add_": 3186,
      "lt\n": 3187,
      " hpq": 3188,
      "empty_": 3189,
      "^[": 3190,
      "ract": 3191,
      "irreduci": 3192,
      "interior_": 3193,
      "matri": 3194,
      " Ne,": 3195,
      "curry": 3196,
      "ey": 3197,
      "utation": 3198,
      " (∫": 3199,
      "Colimit": 3200,
      "Space_": 3201,
      " (add_": 3202,
      "mat": 3203,
      " Nonempty": 3204,
      " l.": 3205,
      " ↑a": 3206,
      " Open": 3207,
      " generaliz": 3208,
      "Range": 3209,
      " generalizing": 3210,
      " [in": 3211,
      "tinuous.": 3212,
      "Func.": 3213,
      " ‖x‖": 3214,
      " Ioc": 3215,
      "solu": 3216,
      "const,": 3217,
      " Q)": 3218,
      "urality": 3219,
      "Pullback": 3220,
      "basis": 3221,
      " [Int.": 3222,
      "ded": 3223,
      "ves": 3224,
      "ilpoten": 3225,
      " one_mul]\n": 3226,
      "⟫_": 3227,
      " id_": 3228,
      "vec": 3229,
      "Coun": 3230,
      "Op": 3231,
      " Set.image_": 3232,
      " Or.inr": 3233,
      "Change": 3234,
      " (zero_": 3235,
      "iff_of_": 3236,
      "ofNat": 3237,
      ".2,": 3238,
      " disjoint_": 3239,
      "Vector": 3240,
      " hR": 3241,
      "red": 3242,
      " *\n": 3243,
      "lope": 3244,
      "Idx": 3245,
      "Lift": 3246,
      "on_": 3247,
      "ext1": 3248,
      "8)": 3249,
      "epi": 3250,
      "ger": 3251,
      "iff_is": 3252,
      "meas": 3253,
      "Factors": 3254,
      "Fn_": 3255,
      "onal_": 3256,
      "stronglyMeasurable": 3257,
      "Strict": 3258,
      " rpow_": 3259,
      " _root_.": 3260,
      " ComplexShape": 3261,
      " mul": 3262,
      "decide": 3263,
      "polynomi": 3264,
      " Mono": 3265,
      "and,": 3266,
      " LinearMap": 3267,
      " continuous": 3268,
      " (re": 3269,
      "Block": 3270,
      "prod.": 3271,
      " ho": 3272,
      "Sur": 3273,
      " Box": 3274,
      " ShortComplex": 3275,
      " [n": 3276,
      " t).": 3277,
      "oneda": 3278,
      "Inter_": 3279,
      "append": 3280,
      "End": 3281,
      " T)": 3282,
      "flo": 3283,
      " Quotient.": 3284,
      "list": 3285,
      "linearMap": 3286,
      "embedding": 3287,
      "summable_": 3288,
      "fi": 3289,
      "sh": 3290,
      "val.": 3291,
      "iUnion,": 3292,
      " h₁\n": 3293,
      "Unital": 3294,
      "),\n": 3295,
      " st": 3296,
      "mk]\n": 3297,
      "abs": 3298,
      ".left": 3299,
      "mul]": 3300,
      "lip": 3301,
      " IsLocalization": 3302,
      "union,": 3303,
      "mul_left": 3304,
      " ⟨a": 3305,
      " Non": 3306,
      " ↑↑": 3307,
      " Finsupp": 3308,
      "count_": 3309,
      "0\n": 3310,
      "tsum": 3311,
      " hδ": 3312,
      " cancel_": 3313,
      "gm": 3314,
      "igen": 3315,
      " [c": 3316,
      " MeasurableSet.": 3317,
      "Exten": 3318,
      "aleph": 3319,
      "_sub_": 3320,
      " add": 3321,
      " ar": 3322,
      " (List.": 3323,
      " preimage_": 3324,
      " →L[𝕜]": 3325,
      "Measurable_": 3326,
      " e.": 3327,
      "disjoint": 3328,
      ".w": 3329,
      "Nth": 3330,
      "xp": 3331,
      " h).": 3332,
      " non": 3333,
      "Object": 3334,
      "Number": 3335,
      "Linear": 3336,
      " b'": 3337,
      " hi,": 3338,
      "_sq": 3339,
      "insert,": 3340,
      "matrix": 3341,
      "vsub_": 3342,
      " =ᶠ[": 3343,
      " _))": 3344,
      " g,": 3345,
      " j,": 3346,
      "setOf_eq,": 3347,
      "und": 3348,
      " (ab": 3349,
      " (Set": 3350,
      " (norm_nonneg": 3351,
      "adingCoeff": 3352,
      " tendsto": 3353,
      "L1": 3354,
      "Corner": 3355,
      "Primitive": 3356,
      "Mk": 3357,
      "int_": 3358,
      " a₁": 3359,
      " m,": 3360,
      "_apply_": 3361,
      " (clo": 3362,
      " ContDiff": 3363,
      "adingCoeff_": 3364,
      "dor": 3365,
      "rect": 3366,
      " Partial": 3367,
      "gcd_": 3368,
      "jection": 3369,
      " (⟨": 3370,
      " (this": 3371,
      " k,": 3372,
      "singleton_": 3373,
      "hasSum": 3374,
      "subtype_": 3375,
      "Par": 3376,
      " ⟨p,": 3377,
      " measurableSet_": 3378,
      "add_neg,": 3379,
      "topy": 3380,
      "deriva": 3381,
      "alize_": 3382,
      "sumption\n": 3383,
      " (subset_": 3384,
      "raded": 3385,
      " s'": 3386,
      "mul_of_": 3387,
      "Isometry": 3388,
      "_natCast": 3389,
      " MvPolynomial": 3390,
      "Right_": 3391,
      " cases": 3392,
      "w,": 3393,
      " Disjoint": 3394,
      " Rel": 3395,
      "pos.2": 3396,
      "Ha": 3397,
      "fig": 3398,
      "rase_": 3399,
      " Char": 3400,
      " convert": 3401,
      "actorial": 3402,
      " ⧸": 3403,
      " b₁": 3404,
      "Cover": 3405,
      " ℕ),": 3406,
      " IsIso": 3407,
      " (f₂": 3408,
      " Nat)": 3409,
      "Restrict": 3410,
      "pos\n": 3411,
      "alg": 3412,
      " (ENNReal.": 3413,
      ".val": 3414,
      "Regular": 3415,
      "tensor": 3416,
      "⁻¹)": 3417,
      " hg\n": 3418,
      "ll": 3419,
      " Ioi": 3420,
      " CategoryTheory.S": 3421,
      " HasDeriv": 3422,
      "real": 3423,
      "mmer": 3424,
      " (a,": 3425,
      "Preser": 3426,
      "cOpen": 3427,
      "₂]\n": 3428,
      "rwitz": 3429,
      "_of_forall": 3430,
      " Finset.card_": 3431,
      " q.": 3432,
      " Inter": 3433,
      ".neg": 3434,
      "alance": 3435,
      "exacts": 3436,
      ".toReal": 3437,
      " hp,": 3438,
      ".measurable": 3439,
      "Theta": 3440,
      "I,": 3441,
      " b))": 3442,
      "restrict_": 3443,
      " show": 3444,
      "atroid": 3445,
      "dup": 3446,
      "WithCorner": 3447,
      "Multilinear": 3448,
      " WeierstrassCurve.": 3449,
      "f\n": 3450,
      "unop": 3451,
      " n.succ": 3452,
      "sub]\n": 3453,
      " padic": 3454,
      " mul_assoc]\n": 3455,
      "term": 3456,
      " Real.Angle": 3457,
      "infer_instance\n": 3458,
      " compl_": 3459,
      " omega": 3460,
      "ore": 3461,
      " [le_": 3462,
      " ⟨f": 3463,
      " Or.inl": 3464,
      "_injective": 3465,
      ".le_": 3466,
      "Option": 3467,
      " cal": 3468,
      "inear_": 3469,
      "actorial_": 3470,
      " [p": 3471,
      " Part": 3472,
      " AE": 3473,
      " (((": 3474,
      " W)": 3475,
      " x'": 3476,
      " nonempty": 3477,
      "add_eq_": 3478,
      " mul_inv_": 3479,
      " k\n": 3480,
      "rfl,": 3481,
      "'⟩\n": 3482,
      "Sy": 3483,
      " (le_of_lt": 3484,
      " F.map": 3485,
      " p,": 3486,
      " Equiv.Perm": 3487,
      "Rat": 3488,
      "lf": 3489,
      " hα": 3490,
      " hr\n": 3491,
      " [Pi.": 3492,
      "delWithCorner": 3493,
      "])\n": 3494,
      " u_8)": 3495,
      "total": 3496,
      " ⟨r,": 3497,
      " Nat.mul_": 3498,
      "sdiff_": 3499,
      " [H": 3500,
      "exact_": 3501,
      " p\n": 3502,
      "cent": 3503,
      " inner_": 3504,
      "Compact_": 3505,
      " comap": 3506,
      "generateFrom": 3507,
      "orphismProperty": 3508,
      " (ha": 3509,
      "cos_": 3510,
      "uot.": 3511,
      "Hom.coe_": 3512,
      ".right": 3513,
      "2\n": 3514,
      " (not_": 3515,
      ".const_": 3516,
      "char": 3517,
      "node": 3518,
      "Anti": 3519,
      "List": 3520,
      "_map_": 3521,
      "clu": 3522,
      " (Int.": 3523,
      "eq\n": 3524,
      " Num": 3525,
      "tinu": 3526,
      " Subset.": 3527,
      " ZMod.": 3528,
      "ae_eq_": 3529,
      "iso": 3530,
      "usdor": 3531,
      "dist_eq_": 3532,
      "abs,": 3533,
      "norm_cast\n": 3534,
      "LinearMap": 3535,
      " Matroid": 3536,
      " pi": 3537,
      "Map.": 3538,
      "object": 3539,
      "Function": 3540,
      " (Ideal.": 3541,
      "basis_": 3542,
      "ℝ]": 3543,
      " one_mul,": 3544,
      "sSup": 3545,
      "mem,": 3546,
      "ned": 3547,
      " hQ": 3548,
      "prop,": 3549,
      " isOpen_": 3550,
      "append,": 3551,
      " →*": 3552,
      " ⟨f,": 3553,
      "ension": 3554,
      ".for": 3555,
      "Node": 3556,
      "angent": 3557,
      "usdorff": 3558,
      "uter": 3559,
      "insert_of_": 3560,
      "plicate": 3561,
      "_1})": 3562,
      "eck": 3563,
      " (⋃": 3564,
      " no": 3565,
      " ht,": 3566,
      "HomologyData": 3567,
      "solve_": 3568,
      " [t": 3569,
      " [coeff_": 3570,
      " hs]\n": 3571,
      "Uniformly": 3572,
      "Independent_": 3573,
      "_lt": 3574,
      "find": 3575,
      " Eq": 3576,
      " mul_zero,": 3577,
      "assoc,\n": 3578,
      "cond": 3579,
      " ⟨z,": 3580,
      " g\n": 3581,
      "Finsupp": 3582,
      "_iff]": 3583,
      " σ)": 3584,
      " δ)": 3585,
      " ModelWithCorner": 3586,
      ".card": 3587,
      "_rhs": 3588,
      "eq]": 3589,
      " t_": 3590,
      "Free": 3591,
      " [b": 3592,
      "_sub": 3593,
      "_mul,": 3594,
      "it_": 3595,
      " (tendsto_": 3596,
      " hom": 3597,
      "ord_": 3598,
      "vera": 3599,
      " ⟨b": 3600,
      " M.": 3601,
      " cfc": 3602,
      " hp.": 3603,
      "Dim": 3604,
      " [N": 3605,
      ").trans_": 3606,
      "le_add": 3607,
      " rcases": 3608,
      "and": 3609,
      " Subtype.coe_": 3610,
      "Group.": 3611,
      "os": 3612,
      " h3": 3613,
      "rox": 3614,
      "vector": 3615,
      " snorm": 3616,
      ").mono": 3617,
      "two,": 3618,
      " Fintype.card_": 3619,
      "goal": 3620,
      "_›": 3621,
      "sieve": 3622,
      " a₂": 3623,
      "mul,\n": 3624,
      " n)\n": 3625,
      " Fractional": 3626,
      " Euclidean": 3627,
      "cancel_left": 3628,
      "Adj": 3629,
      " (config": 3630,
      "cycles": 3631,
      "riodic": 3632,
      "cau": 3633,
      " hx)": 3634,
      "zero_iff_": 3635,
      "On.": 3636,
      " decide": 3637,
      " ..": 3638,
      " x_1)": 3639,
      "Roo": 3640,
      "✝)": 3641,
      "thon": 3642,
      " s₂": 3643,
      "condexp": 3644,
      "stem": 3645,
      "roots": 3646,
      "Independent": 3647,
      "adraticForm": 3648,
      "Len": 3649,
      "aul": 3650,
      "cy": 3651,
      " hh": 3652,
      "rob": 3653,
      " iUnion": 3654,
      " ⟨m,": 3655,
      " W.": 3656,
      "pos_iff_": 3657,
      " Ordinal.{u})": 3658,
      " smul_eq_mul,": 3659,
      " algebraMap": 3660,
      " if_pos": 3661,
      " PGame": 3662,
      " hx)\n": 3663,
      "table_": 3664,
      " MeasureTheory.Measure.": 3665,
      "sign_": 3666,
      " RingHom.": 3667,
      " ≅": 3668,
      " L.": 3669,
      " t\n": 3670,
      "bind": 3671,
      "swap\n": 3672,
      "rothen": 3673,
      " g.": 3674,
      " Ar": 3675,
      "dieck": 3676,
      "upper": 3677,
      ".basi": 3678,
      "self_iff_": 3679,
      " ∑'": 3680,
      " (Finset.mem_": 3681,
      " Stream": 3682,
      "rothendieck": 3683,
      " op": 3684,
      "Nilpoten": 3685,
      "hal": 3686,
      " nhds": 3687,
      " Ne": 3688,
      " edist": 3689,
      " isClosed_": 3690,
      " RingHom.map_": 3691,
      "preimage,": 3692,
      " Bool)": 3693,
      "Root.": 3694,
      " ⋂": 3695,
      " bot_": 3696,
      " M₂)": 3697,
      " IsCompact": 3698,
      "empty]\n": 3699,
      "count": 3700,
      "ym2": 3701,
      " ⟦": 3702,
      " let": 3703,
      " r,": 3704,
      " Di": 3705,
      " contra": 3706,
      "hasFDeriv": 3707,
      "Dimension": 3708,
      "E)": 3709,
      "zpow_": 3710,
      "ˣ)": 3711,
      " [S": 3712,
      " b₂": 3713,
      " iSup_": 3714,
      "sub_C": 3715,
      "val,": 3716,
      "bt": 3717,
      "bound": 3718,
      " ⟨j,": 3719,
      ".induction": 3720,
      "specialize": 3721,
      "Equivale": 3722,
      "denom": 3723,
      "ronglyMeasurable_": 3724,
      " lift": 3725,
      " key": 3726,
      "[X]": 3727,
      "extend_": 3728,
      " assoc,": 3729,
      " ModelWithCorners": 3730,
      " order": 3731,
      " ht.": 3732,
      " hx⟩": 3733,
      " hx⟩\n": 3734,
      "Map_": 3735,
      " closedBall": 3736,
      " mod_cast": 3737,
      ".o": 3738,
      "tice": 3739,
      " p.1": 3740,
      " Prime": 3741,
      "hortComplex.": 3742,
      "Tower": 3743,
      " ‹_›": 3744,
      " ⟨g,": 3745,
      " gc": 3746,
      " ℕ+": 3747,
      " ↑s": 3748,
      "_apply,\n": 3749,
      "bot,": 3750,
      " range_": 3751,
      "n\n": 3752,
      "iff_not_": 3753,
      " (ne_of_": 3754,
      "_of_mem_": 3755,
      "iUnion_": 3756,
      " Scheme)": 3757,
      "Metric": 3758,
      " ∘ₗ": 3759,
      "nat_": 3760,
      " [norm": 3761,
      " x₂": 3762,
      "ing_": 3763,
      "mul_right": 3764,
      " zpow_": 3765,
      " ⇑f": 3766,
      "sedBall_": 3767,
      "System": 3768,
      "Pi": 3769,
      "diate": 3770,
      ".smul_": 3771,
      "Min": 3772,
      "Term": 3773,
      " i₁": 3774,
      ").re": 3775,
      "mul_cancel": 3776,
      " ∀ᵐ": 3777,
      "mediate": 3778,
      "some": 3779,
      " if_neg": 3780,
      "mem\n": 3781,
      "uot_": 3782,
      " comap_": 3783,
      "tructure": 3784,
      ".L": 3785,
      "⟩⟩": 3786,
      " p₃": 3787,
      "eni": 3788,
      "extChart": 3789,
      "one_lt_": 3790,
      "Space.": 3791,
      "robeni": 3792,
      " insert": 3793,
      "Dual": 3794,
      "_add": 3795,
      "singular": 3796,
      "card_eq_": 3797,
      "tMDiff": 3798,
      " ae": 3799,
      " α,": 3800,
      "Subspace": 3801,
      " ⁅": 3802,
      " card": 3803,
      "Bot.": 3804,
      "DF": 3805,
      "sor_": 3806,
      ").prod": 3807,
      " (hm": 3808,
      "closed": 3809,
      " hab\n": 3810,
      "geneo": 3811,
      "Singleton": 3812,
      " nil": 3813,
      ").card": 3814,
      "attice": 3815,
      " v.": 3816,
      " e'": 3817,
      " mul_le_mul_": 3818,
      " ((fun": 3819,
      "div]\n": 3820,
      " ↑((": 3821,
      "closure_": 3822,
      " NNReal.coe_": 3823,
      "U,": 3824,
      "tone_": 3825,
      " h.2": 3826,
      "sum]\n": 3827,
      "induction_on": 3828,
      " [Finset.mem_": 3829,
      " -ᵥ": 3830,
      "cir": 3831,
      "Compl": 3832,
      "Semi": 3833,
      "polynomial": 3834,
      ".im": 3835,
      "Au": 3836,
      "]⟩\n": 3837,
      "fst_": 3838,
      " (Submodule": 3839,
      "duc": 3840,
      "erIn": 3841,
      " Subalgebra": 3842,
      "exists,": 3843,
      "one_le_": 3844,
      " ‖y": 3845,
      "X_pow_": 3846,
      "ScalarTower": 3847,
      " PGame)": 3848,
      " [integral_": 3849,
      "finset": 3850,
      " x₁": 3851,
      "ish": 3852,
      "mula": 3853,
      " s₁": 3854,
      " C(": 3855,
      " 𝓝[": 3856,
      "Field": 3857,
      " Category.assoc,": 3858,
      "ros": 3859,
      "lor": 3860,
      "num": 3861,
      " (ρ": 3862,
      " c\n": 3863,
      "ventually_of_forall": 3864,
      ").toReal": 3865,
      " minpoly": 3866,
      "integrableOn_": 3867,
      " ∞": 3868,
      "_co": 3869,
      "lt.": 3870,
      "tex": 3871,
      " u,": 3872,
      " z,": 3873,
      " IsUnit": 3874,
      "Projection": 3875,
      "pred_": 3876,
      "sup_eq_": 3877,
      " Function.Injective": 3878,
      "StronglyMeasurable": 3879,
      "rothendieckTopology": 3880,
      "inner_": 3881,
      "emeasurable": 3882,
      " (x,": 3883,
      " z\n": 3884,
      ".erase": 3885,
      "ext_iff,": 3886,
      " hxy\n": 3887,
      " CochainComplex": 3888,
      "_eq_mul_inv,": 3889,
      " (le_of_": 3890,
      " [sub_": 3891,
      "ray": 3892,
      "id.": 3893,
      ".map_comp,": 3894,
      "Indep": 3895,
      " hζ": 3896,
      " fold": 3897,
      "Rec": 3898,
      " volume": 3899,
      " }\n": 3900,
      "rwitzZeta": 3901,
      " [prod_": 3902,
      "verge": 3903,
      " (Con": 3904,
      ").2\n": 3905,
      "continuousOn": 3906,
      ".comap": 3907,
      " Subtype.val": 3908,
      " hG": 3909,
      " Cau": 3910,
      ".iso": 3911,
      "of_not_": 3912,
      "one_eq_": 3913,
      " Differentiable": 3914,
      " (l₁": 3915,
      "powerset": 3916,
      " To": 3917,
      "pol": 3918,
      "ofNat_": 3919,
      "span_": 3920,
      "Series_": 3921,
      " ℕ+)": 3922,
      "BNode": 3923,
      "ymp": 3924,
      " ‖(": 3925,
      "image]\n": 3926,
      "orthogonalProjection": 3927,
      "tsum_": 3928,
      "cons]\n": 3929,
      "Component": 3930,
      "conv_rhs": 3931,
      "btw": 3932,
      "pr_": 3933,
      " (τ": 3934,
      "rive": 3935,
      " e.symm": 3936,
      "ToHom": 3937,
      "ilin": 3938,
      " cons": 3939,
      " {x}": 3940,
      "Surjective": 3941,
      "Eigen": 3942,
      "base": 3943,
      "var": 3944,
      " _⟩": 3945,
      " IsClosed": 3946,
      "Support": 3947,
      "clusion": 3948,
      "alle": 3949,
      " Norm": 3950,
      "enn": 3951,
      " (s₁": 3952,
      " hf'": 3953,
      " hf]\n": 3954,
      "norm,": 3955,
      " _))\n": 3956,
      " (↑n": 3957,
      "ronti": 3958,
      ".π": 3959,
      "list_": 3960,
      " bi": 3961,
      "rection": 3962,
      " M')": 3963,
      " adj": 3964,
      ".withDensity": 3965,
      "Ima": 3966,
      " filter": 3967,
      "approx": 3968,
      " Pi": 3969,
      " mul_comm]\n": 3970,
      "Functor.": 3971,
      "gt_": 3972,
      "pure": 3973,
      "uot": 3974,
      " mul_comm,": 3975,
      "omial_": 3976,
      "rontier": 3977,
      " ta": 3978,
      " dsimp": 3979,
      " add_sub_": 3980,
      ".le\n": 3981,
      "congr_ae": 3982,
      "nected_": 3983,
      "duced": 3984,
      "_zero,": 3985,
      " (‖": 3986,
      "or_nonempty": 3987,
      "lie": 3988,
      "top]\n": 3989,
      " ENNReal.ofReal_": 3990,
      "clear": 3991,
      "rossing": 3992,
      "Cent": 3993,
      "odd": 3994,
      " (η": 3995,
      "ine": 3996,
      " y))": 3997,
      "move": 3998,
      "imp,": 3999,
      "natCast,": 4000,
      "UpTo": 4001,
      " (hp": 4002,
      "or_lt": 4003,
      " hn,": 4004,
      "disj": 4005,
      "ries.": 4006,
      ").1\n": 4007,
      "false,": 4008,
      " {a}": 4009,
      ".pow_": 4010,
      "_inv": 4011,
      " (∃": 4012,
      " aeval_": 4013,
      " 1),": 4014,
      " rexp": 4015,
      "ib": 4016,
      " ap": 4017,
      "get_": 4018,
      "rans": 4019,
      "_eq_zero,": 4020,
      " (M₂": 4021,
      "defaul": 4022,
      "equalizer": 4023,
      "rator": 4024,
      "Seq_": 4025,
      " [neg_": 4026,
      " zero_mul,": 4027,
      " abs_of_": 4028,
      " Tensor": 4029,
      "true]\n": 4030,
      "decide\n": 4031,
      " degree_": 4032,
      " (lt_of_": 4033,
      " [w": 4034,
      "of_le": 4035,
      " (f.": 4036,
      "_not_": 4037,
      "Adjoint": 4038,
      "flection": 4039,
      " [co": 4040,
      "uterMeasure": 4041,
      "s]": 4042,
      "‖)": 4043,
      "unction.": 4044,
      "iff,\n": 4045,
      " (-1)": 4046,
      "HomologyMap": 4047,
      "elow": 4048,
      "super": 4049,
      "_nat_": 4050,
      "take": 4051,
      "quent": 4052,
      "diction": 4053,
      " add_assoc,": 4054,
      "get?": 4055,
      " hk\n": 4056,
      " comm": 4057,
      "Com": 4058,
      "_map": 4059,
      "iti": 4060,
      "₂⟩": 4061,
      "tein": 4062,
      " [Real.": 4063,
      "thickening": 4064,
      "dule_": 4065,
      " -,": 4066,
      " Submodule.mem_": 4067,
      "aestronglyMeasurable": 4068,
      " [show": 4069,
      " AffineSubspace": 4070,
      " QuadraticForm": 4071,
      " calc\n": 4072,
      " ◁": 4073,
      "f.": 4074,
      " hσ": 4075,
      " S,": 4076,
      ".smul": 4077,
      "_lhs": 4078,
      "_inter_": 4079,
      "rev": 4080,
      "expan": 4081,
      " ℕ,": 4082,
      " inr": 4083,
      "dvd_of_": 4084,
      "eq_zero_of_": 4085,
      " hle": 4086,
      " i.": 4087,
      "compact": 4088,
      " l,": 4089,
      "simpa\n": 4090,
      " ENNReal.toReal_": 4091,
      " Function.comp_apply,": 4092,
      "inj,": 4093,
      " natDegree_": 4094,
      "acobian": 4095,
      "AlgHom": 4096,
      " ⊕": 4097,
      "x\n": 4098,
      " [M": 4099,
      "mable": 4100,
      "requent": 4101,
      "iscrete": 4102,
      " cos": 4103,
      "Path": 4104,
      "ormalMultilinear": 4105,
      " count": 4106,
      " filter_upwards": 4107,
      "Combination": 4108,
      "requently": 4109,
      " exp_": 4110,
      "jOn": 4111,
      " x.2": 4112,
      " _]\n": 4113,
      " Strict": 4114,
      "toFinset": 4115,
      " (α_": 4116,
      " zero_lt_one": 4117,
      " unop": 4118,
      "const_nhds": 4119,
      "same": 4120,
      "t\n": 4121,
      "toFinset_": 4122,
      "iff_exists_": 4123,
      " (Equiv": 4124,
      "Equiv.symm": 4125,
      " Function.comp": 4126,
      "Quotient.mk": 4127,
      " AlgebraicGeometry.": 4128,
      "Diff_": 4129,
      "teries.": 4130,
      "atteries.": 4131,
      "countable": 4132,
      ".num": 4133,
      "_refl": 4134,
      "modEq": 4135,
      "')\n": 4136,
      "_iff]\n": 4137,
      " False": 4138,
      "tie": 4139,
      " Batteries.": 4140,
      "Connected": 4141,
      "range_self": 4142,
      " (Set.range": 4143,
      "smul_eq_mul,": 4144,
      "Base": 4145,
      "Circle": 4146,
      "drop": 4147,
      "inary": 4148,
      " p).": 4149,
      " p.2": 4150,
      " -1": 4151,
      " (p₁": 4152,
      " (F.map": 4153,
      "abel": 4154,
      "aleph0": 4155,
      "Power": 4156,
      "ok": 4157,
      " ball": 4158,
      " Language": 4159,
      "setTo": 4160,
      " add_comm": 4161,
      " [*]\n": 4162,
      " Opens": 4163,
      " CategoryTheory.ShortComplex.": 4164,
      "geneous": 4165,
      " >": 4166,
      "a)": 4167,
      " μ]": 4168,
      ".symm,": 4169,
      "Above_": 4170,
      "acobiTheta": 4171,
      " [Ne,": 4172,
      "dom": 4173,
      " (max": 4174,
      " [norm_": 4175,
      " _).symm\n": 4176,
      " ⋯)": 4177,
      " HomologicalComplex.": 4178,
      "elim\n": 4179,
      " ▷": 4180,
      " root": 4181,
      " [F": 4182,
      "monic": 4183,
      "oangle_eq_": 4184,
      "principal": 4185,
      "Extension": 4186,
      "Central": 4187,
      "₀\n": 4188,
      " i),": 4189,
      "coeFn_": 4190,
      " not_false_": 4191,
      " Submodule.span": 4192,
      "aeval": 4193,
      "supp_": 4194,
      "rived": 4195,
      "cm": 4196,
      " ({": 4197,
      " diff_": 4198,
      " eventually_": 4199,
      "AddGroup": 4200,
      " WithTop": 4201,
      ".trans_le": 4202,
      "Pe": 4203,
      " x.1": 4204,
      " FormalMultilinear": 4205,
      "nel_": 4206,
      "pow_of_": 4207,
      "Module.": 4208,
      "Multiset.": 4209,
      "Trans.": 4210,
      "structure": 4211,
      "match": 4212,
      "_cases": 4213,
      "_of": 4214,
      " a1": 4215,
      "Indicator": 4216,
      ".reverse": 4217,
      "able_": 4218,
      "l\n": 4219,
      "eq_zero,": 4220,
      " p'": 4221,
      ".repr": 4222,
      "range_eq_": 4223,
      "igned": 4224,
      "choose_spec": 4225,
      " (continuous_": 4226,
      "SimpleFunc": 4227,
      " nonempty_": 4228,
      "cum": 4229,
      " I'": 4230,
      "Self": 4231,
      "prod_mk": 4232,
      "Convex": 4233,
      "Unit.": 4234,
      " inferIn": 4235,
      ".1)": 4236,
      "art.": 4237,
      " ℕ∞)": 4238,
      "ne_zero,": 4239,
      "ieve": 4240,
      "olum": 4241,
      " h₂,": 4242,
      " mk_": 4243,
      "top_iff_": 4244,
      "Haar": 4245,
      "Boun": 4246,
      "Partial": 4247,
      "_subset": 4248,
      " Metric.": 4249,
      "and]\n": 4250,
      " ι,": 4251,
      " Polynomial.map_": 4252,
      ".lift_": 4253,
      "ze_": 4254,
      " Convex": 4255,
      "intervalIntegral.": 4256,
      " ⦃": 4257,
      ".st": 4258,
      ".norm": 4259,
      ".op": 4260,
      "9)": 4261,
      " (∏": 4262,
      "or,": 4263,
      " uE)": 4264,
      " →ₐ": 4265,
      "zero,\n": 4266,
      "_eq_top": 4267,
      " t'": 4268,
      " (s.": 4269,
      " φ)": 4270,
      " lower": 4271,
      ".closure": 4272,
      "Mea": 4273,
      "mid": 4274,
      "intCast": 4275,
      " v,": 4276,
      " update": 4277,
      " Topological": 4278,
      "geom": 4279,
      " (show": 4280,
      " mul_zero]\n": 4281,
      " adjoin": 4282,
      "range]\n": 4283,
      " Quotient": 4284,
      "Adjoin": 4285,
      " (minpoly": 4286,
      "⟫_𝕜": 4287,
      ".lift": 4288,
      "₃,": 4289,
      "inner": 4290,
      " [A": 4291,
      " [Submodule": 4292,
      "deal_": 4293,
      " if_": 4294,
      " w\n": 4295,
      " c₁": 4296,
      "Coeff": 4297,
      " v\n": 4298,
      " H,": 4299,
      ".toMatrix": 4300,
      " Ord": 4301,
      "natAbs": 4302,
      "ir_": 4303,
      " hX": 4304,
      "der_": 4305,
      "sub_iff_": 4306,
      " ((↑": 4307,
      "cancel_right": 4308,
      " b.": 4309,
      "zero\n": 4310,
      "left.": 4311,
      "succ_le_": 4312,
      "direc": 4313,
      " Finset.coe_": 4314,
      " add_zero]\n": 4315,
      "TensorProduct": 4316,
      "thonormal": 4317,
      " mem": 4318,
      "Bot_": 4319,
      "Quotient": 4320,
      " Metric": 4321,
      "dition": 4322,
      "termin": 4323,
      "line": 4324,
      " [LinearMap.": 4325,
      "olution": 4326,
      "Suppor": 4327,
      "Formula": 4328,
      "_root_": 4329,
      "piecewise": 4330,
      " u')": 4331,
      "re,": 4332,
      " i₂": 4333,
      "apply_eq_": 4334,
      " g₁": 4335,
      " β),": 4336,
      "filter,": 4337,
      "Preserv": 4338,
      " Φ": 4339,
      "_one": 4340,
      "hickening": 4341,
      "st.": 4342,
      "orsion": 4343,
      "cthickening": 4344,
      " a)\n": 4345,
      " aux": 4346,
      " Se": 4347,
      ")),": 4348,
      "diam": 4349,
      " hc,": 4350,
      "derivWithin": 4351,
      ".edge": 4352,
      "0]\n": 4353,
      "e.symm": 4354,
      " (image": 4355,
      " (insert": 4356,
      " →ₛ": 4357,
      " First": 4358,
      "nonpos": 4359,
      "const]\n": 4360,
      "Push": 4361,
      "Ran": 4362,
      " [Subtype": 4363,
      "simp_all": 4364,
      " Sigma": 4365,
      " M₁": 4366,
      " Set.range": 4367,
      "funext": 4368,
      "all_goal": 4369,
      " s.card": 4370,
      "Tendsto": 4371,
      "rectSum": 4372,
      " Ordnode": 4373,
      "Below": 4374,
      "ler": 4375,
      " imp": 4376,
      " Free": 4377,
      "flip": 4378,
      " (p₂": 4379,
      "mod_cast": 4380,
      "R)": 4381,
      "_zero_": 4382,
      "bl": 4383,
      "uIcc": 4384,
      "lete": 4385,
      "radi": 4386,
      " (hi": 4387,
      "tach": 4388,
      " ↑m": 4389,
      " hr,": 4390,
      " hj\n": 4391,
      " lt_of_le_of_lt": 4392,
      " =ᶠ[ae": 4393,
      " Intermediate": 4394,
      "diction\n": 4395,
      "Disjoint": 4396,
      "rin": 4397,
      "rreduci": 4398,
      "lex": 4399,
      " u_9)": 4400,
      " r\n": 4401,
      " g₂": 4402,
      " -(": 4403,
      "right_of_": 4404,
      "lt_succ_": 4405,
      " [mul_comm,": 4406,
      " dist_eq_": 4407,
      "irwise_": 4408,
      "tfae_": 4409,
      ".oangle": 4410,
      "Cat.": 4411,
      "linearMap.": 4412,
      "oro": 4413,
      " (eval": 4414,
      ".comap_": 4415,
      " Locally": 4416,
      " PartialHomeomorph": 4417,
      "urwitzZeta": 4418,
      "th_": 4419,
      "ulli": 4420,
      " (l₂": 4421,
      " U)": 4422,
      " eq_self_iff_": 4423,
      ".cons": 4424,
      ".le,": 4425,
      "noulli": 4426,
      " singleton": 4427,
      "schitzWith": 4428,
      " ?": 4429,
      "last": 4430,
      "ℒp": 4431,
      " R))": 4432,
      " ↑b": 4433,
      "que_": 4434,
      " (Set.mem_": 4435,
      " NonUnital": 4436,
      " multiplicity": 4437,
      "Mem": 4438,
      "revert": 4439,
      "cos": 4440,
      "dup_": 4441,
      "Subobject": 4442,
      " →L[ℝ]": 4443,
      " ProbabilityTheory.kernel": 4444,
      ".c": 4445,
      "le_mul": 4446,
      " mul_left_": 4447,
      " [hx,": 4448,
      " hu\n": 4449,
      " ![": 4450,
      " FirstOrder": 4451,
      "Du": 4452,
      "liff": 4453,
      "sInf": 4454,
      " h.1": 4455,
      " [div_": 4456,
      " a⁻¹": 4457,
      "ann": 4458,
      " hx'": 4459,
      " (h₂": 4460,
      " eval₂": 4461,
      "Le": 4462,
      "Poc": 4463,
      "g_": 4464,
      "hha": 4465,
      " SetLike": 4466,
      "pred": 4467,
      "aeval_": 4468,
      "minpoly": 4469,
      " [Nat.cast_": 4470,
      "ittVector": 4471,
      " →ₗ[": 4472,
      " dif_pos": 4473,
      "lifford": 4474,
      "Pochha": 4475,
      " b).": 4476,
      " Ici": 4477,
      " (a₁": 4478,
      "divisor": 4479,
      " hmn": 4480,
      " (𝓝[": 4481,
      "eightSpace": 4482,
      "FractionRing": 4483,
      " Seminorm": 4484,
      "Pochhammer": 4485,
      "whisker": 4486,
      " (ω": 4487,
      "unctor": 4488,
      " I.": 4489,
      " (ht": 4490,
      " Val": 4491,
      "conv_lhs": 4492,
      "text": 4493,
      "',\n": 4494,
      "_hom": 4495,
      " [Category.": 4496,
      "simple": 4497,
      " Iic": 4498,
      "left_of_": 4499,
      "lt]\n": 4500,
      "image_of_mem": 4501,
      "intype.card": 4502,
      "mem_nhdsWithin": 4503,
      " Presheaf": 4504,
      "sub_add_cancel": 4505,
      "solute": 4506,
      "Ideal_": 4507,
      "],": 4508,
      "_obj": 4509,
      "apply,\n": 4510,
      "pow_natCast": 4511,
      " (Multi": 4512,
      " TensorProduct": 4513,
      ".X": 4514,
      "F)": 4515,
      "_pow_": 4516,
      "ati": 4517,
      "to_": 4518,
      "dual_": 4519,
      "intro\n": 4520,
      " simp_all": 4521,
      " union": 4522,
      "countable_": 4523,
      "ZeroDivisor": 4524,
      "eter": 4525,
      "rincip": 4526,
      "sem": 4527,
      "xeter": 4528,
      " I,": 4529,
      " mt": 4530,
      " A\n": 4531,
      ".indicator": 4532,
      " restrict_": 4533,
      "degree_eq_": 4534,
      " Associates.": 4535,
      ".algebraMap": 4536,
      " mul_add,": 4537,
      "uotient_": 4538,
      "apply_symm": 4539,
      "distrib,": 4540,
      "separable": 4541,
      ".functor": 4542,
      "n]": 4543,
      "t)": 4544,
      " [Continuous": 4545,
      "p_cat": 4546,
      " IsPrimitive": 4547,
      "module_": 4548,
      ".2.2": 4549,
      "Equiv.coe_": 4550,
      "NNReal_": 4551,
      "_eq_zero_of_": 4552,
      " Ordinal.{u_1})": 4553,
      "bs": 4554,
      "fan": 4555,
      "from": 4556,
      " [@": 4557,
      " (f'": 4558,
      "attach": 4559,
      "iling": 4560,
      " TopCat)": 4561,
      ".subtype": 4562,
      "isUnit_": 4563,
      "its": 4564,
      "pos]\n": 4565,
      "Sep": 4566,
      " Stream'.": 4567,
      ".Language": 4568,
      "ignedMeasure": 4569,
      " FirstOrder.Language": 4570,
      " sum": 4571,
      "Car": 4572,
      "Tra": 4573,
      "VSub": 4574,
      "cyclotomic": 4575,
      " ne_of_": 4576,
      " gcongr\n": 4577,
      " Nat.succ_": 4578,
      " Coxeter": 4579,
      ".mk'": 4580,
      "ihil": 4581,
      "Equ": 4582,
      "trun": 4583,
      " x]\n": 4584,
      "right.": 4585,
      " ↑i": 4586,
      " j))": 4587,
      "one_iff": 4588,
      "tal_": 4589,
      " ae_": 4590,
      " f))": 4591,
      " (h₁": 4592,
      " le_rfl\n": 4593,
      ".base": 4594,
      "bot]\n": 4595,
      " Power": 4596,
      "vers": 4597,
      "inter,": 4598,
      "pos.mpr": 4599,
      "push_": 4600,
      "aesop\n": 4601,
      " left": 4602,
      ".image": 4603,
      "P.": 4604,
      "sInf_": 4605,
      "x)": 4606,
      " (lt_": 4607,
      " ⟨0,": 4608,
      "look": 4609,
      " y).": 4610,
      " Injective": 4611,
      " _).symm": 4612,
      " Language)": 4613,
      "_smul_": 4614,
      "dArrow": 4615,
      " sdiff_": 4616,
      "lize": 4617,
      " Gamma": 4618,
      "one_iff_": 4619,
      " 1)\n": 4620,
      "Finset,": 4621,
      " ZMod": 4622,
      "Separable": 4623,
      "monomial,": 4624,
      "Vec": 4625,
      "olume_": 4626,
      "Bounded_": 4627,
      "d\n": 4628,
      "form": 4629,
      "measurable_": 4630,
      " (op": 4631,
      " RC": 4632,
      "duct_": 4633,
      "Int": 4634,
      " ℝ))": 4635,
      "plitting": 4636,
      " PartE": 4637,
      "show": 4638,
      "cover": 4639,
      " kernel": 4640,
      " Set.univ": 4641,
      " inl": 4642,
      " zero_lt_": 4643,
      " abv": 4644,
      "Image": 4645,
      "aus": 4646,
      " [l": 4647,
      "s_iff_": 4648,
      "ltje": 4649,
      " add_zero,": 4650,
      "prod_eq_": 4651,
      " ih,": 4652,
      " exists_prop,": 4653,
      " IH\n": 4654,
      "ByMonic": 4655,
      " Monotone": 4656,
      "tieltje": 4657,
      ".h": 4658,
      "LinearMap.": 4659,
      "_aux": 4660,
      "onent_": 4661,
      "aralle": 4662,
      " (x✝": 4663,
      "Coeff_": 4664,
      " simp)": 4665,
      "out.": 4666,
      " HasFDeriv": 4667,
      "rivial": 4668,
      "Bound": 4669,
      "_succ_": 4670,
      "bor": 4671,
      "f'": 4672,
      " hp_": 4673,
      " [C": 4674,
      " [inv_": 4675,
      " F.": 4676,
      " Ad": 4677,
      " l).": 4678,
      "lian": 4679,
      " X.": 4680,
      " zero_add,": 4681,
      " zero_add]\n": 4682,
      "odd_": 4683,
      "le_add_right": 4684,
      "tieltjes": 4685,
      "LIntegral_": 4686,
      "hi": 4687,
      "tan": 4688,
      "alse_": 4689,
      " tsub_": 4690,
      " (measure_": 4691,
      "WithinAt.": 4692,
      "cauchy": 4693,
      ".de": 4694,
      "in_": 4695,
      "neg]": 4696,
      " ha]\n": 4697,
      "congr'": 4698,
      "extChartAt": 4699,
      " ≪": 4700,
      "ug": 4701,
      " [_root_": 4702,
      "app,": 4703,
      "one,\n": 4704,
      " ↑p": 4705,
      "direction": 4706,
      "ame_": 4707,
      "ament": 4708,
      " AddMonoid": 4709,
      " $": 4710,
      " affine": 4711,
      " Nat": 4712,
      "Cochain": 4713,
      "add_of_": 4714,
      " e)": 4715,
      " hab,": 4716,
      "succ',": 4717,
      " Subsingleton": 4718,
      "toList": 4719,
      "affineSpan": 4720,
      " [*,": 4721,
      "Shift": 4722,
      " [sum_": 4723,
      " swap": 4724,
      "connected": 4725,
      "toNNReal": 4726,
      " [hp": 4727,
      "setOf": 4728,
      " IsScalarTower": 4729,
      "_eq\n": 4730,
      "inter_eq_": 4731,
      "sqrt_": 4732,
      "locally": 4733,
      "bdd": 4734,
      "dament": 4735,
      " (single": 4736,
      " n'": 4737,
      " c₂": 4738,
      " (hs.": 4739,
      "quasi": 4740,
      " mul_assoc": 4741,
      "closedBall_": 4742,
      ".eventually_": 4743,
      "sqrt": 4744,
      " ⊗ₜ": 4745,
      "ball_": 4746,
      " [card_": 4747,
      " f.to": 4748,
      " false_": 4749,
      " Ex": 4750,
      " lift.": 4751,
      " ker": 4752,
      " hg,": 4753,
      "even": 4754,
      "principal_": 4755,
      " cancel_mono": 4756,
      " den": 4757,
      "LT": 4758,
      "ime": 4759,
      "{max": 4760,
      " (star": 4761,
      "rec.": 4762,
      "_eq_one": 4763,
      " hx).": 4764,
      " (span": 4765,
      "smul_def,": 4766,
      "Poly": 4767,
      "uniformity": 4768,
      "ugate": 4769,
      ".card_": 4770,
      "AE": 4771,
      "zip": 4772,
      "₂₃": 4773,
      "↑(": 4774,
      " f.map_": 4775,
      "arc": 4776,
      "_no": 4777,
      "stric": 4778,
      " Real.rpow_": 4779,
      "trace": 4780,
      " (Nat.cast_": 4781,
      "surj": 4782,
      " [add_comm,": 4783,
      "Roots": 4784,
      "ellF": 4785,
      "irreducible_": 4786,
      " √": 4787,
      ".ext": 4788,
      "_def,": 4789,
      "ke_": 4790,
      "sen": 4791,
      " ⟨v,": 4792,
      " Math": 4793,
      "compo": 4794,
      " Path": 4795,
      " gcongr": 4796,
      " (s₂": 4797,
      "lib.": 4798,
      "homology": 4799,
      "le_of_le": 4800,
      " hq\n": 4801,
      " hl\n": 4802,
      " tendsto_const_nhds": 4803,
      ".part": 4804,
      "roupo": 4805,
      "vergent": 4806,
      "ilinForm": 4807,
      " Mathlib.": 4808,
      " ζ": 4809,
      " comp_apply,": 4810,
      "S,": 4811,
      "[μ": 4812,
      "cl": 4813,
      "symp": 4814,
      " (sub": 4815,
      " (Prod.": 4816,
      " [m": 4817,
      " bit": 4818,
      " n),": 4819,
      " s))": 4820,
      "totic": 4821,
      " m.": 4822,
      " v}": 4823,
      "prop\n": 4824,
      "mk'": 4825,
      "constant": 4826,
      " convex": 4827,
      "card,": 4828,
      " _).2": 4829,
      "_inj": 4830,
      " top_": 4831,
      " [mul_assoc,": 4832,
      " FiniteDimension": 4833,
      " [sub_eq_add_neg,": 4834,
      "symptotic": 4835,
      "symptotics.": 4836,
      "Partition": 4837,
      "Rat.": 4838,
      "inate": 4839,
      " s_": 4840,
      ").Is": 4841,
      "ome_": 4842,
      " ?_⟩,": 4843,
      "_of_pos": 4844,
      " (lift": 4845,
      " List.mem_": 4846,
      "Closed.": 4847,
      "robenius": 4848,
      " ~": 4849,
      " ϕ": 4850,
      ".sum_": 4851,
      "ple": 4852,
      " (pow_": 4853,
      " nhds_": 4854,
      " i'": 4855,
      " funext": 4856,
      "off": 4857,
      "atTop]": 4858,
      "forall_mem_": 4859,
      " upper": 4860,
      "PGame": 4861,
      "ns": 4862,
      "ι_": 4863,
      " (𝒜": 4864,
      " p.toReal": 4865,
      "lice_": 4866,
      "_span": 4867,
      "Pos": 4868,
      " Cardinal.{u": 4869,
      "UniformlyOn": 4870,
      " 𝒰": 4871,
      "Bl": 4872,
      " α\n": 4873,
      " ⟨c": 4874,
      " r'": 4875,
      "iff_right": 4876,
      " (xs": 4877,
      " A.": 4878,
      "Index": 4879,
      "Subset.": 4880,
      " Finset.univ": 4881,
      "_induction": 4882,
      "compl,": 4883,
      " hμs": 4884,
      " (closure": 4885,
      "noc": 4886,
      " (Sum": 4887,
      " u}": 4888,
      " Type)": 4889,
      "composition": 4890,
      " m₂": 4891,
      ")))\n": 4892,
      "Equiv_": 4893,
      "Finsupp.": 4894,
      "ariant": 4895,
      "support.": 4896,
      "injective\n": 4897,
      "nnnorm": 4898,
      "powers": 4899,
      "Seminorm": 4900,
      " le_of_lt": 4901,
      "Class.": 4902,
      ".equiv": 4903,
      "Polynomial": 4904,
      "weighted": 4905,
      " uF)": 4906,
      " Finset.range": 4907,
      "irrefl": 4908,
      " huv": 4909,
      " eval₂_": 4910,
      " CochainComplex.": 4911,
      "natAbs_": 4912,
      "PresheafedSpace": 4913,
      "textual": 4914,
      " support_": 4915,
      " intervalIntegral.": 4916,
      ".den": 4917,
      " (Γ": 4918,
      "indicator_": 4919,
      "sep": 4920,
      " none": 4921,
      " y‖": 4922,
      " ?_).": 4923,
      " c'": 4924,
      " cons_": 4925,
      ".some": 4926,
      " (LinearMap.": 4927,
      " ∂μ,": 4928,
      ".pi": 4929,
      "V,": 4930,
      " [Multiset.": 4931,
      "uncurry": 4932,
      " ij": 4933,
      "cons_of_": 4934,
      " F'": 4935,
      " ⟨rfl,": 4936,
      "stronglyMeasurable_": 4937,
      " withDensity": 4938,
      " Nat.le_": 4939,
      "associate": 4940,
      " Quot.": 4941,
      " toIoc": 4942,
      "deriv_": 4943,
      "continuousAt": 4944,
      " hd\n": 4945,
      "urality_": 4946,
      " right": 4947,
      "eventually": 4948,
      "₁]\n": 4949,
      "to\n": 4950,
      " ↑I": 4951,
      " e,": 4952,
      "setIntegral_": 4953,
      " ‖g": 4954,
      "strictMono": 4955,
      " diag": 4956,
      "_eq_zero_iff": 4957,
      "norm_eq_abs,": 4958,
      "Countable": 4959,
      "trim": 4960,
      "rel": 4961,
      " c.": 4962,
      "))]\n": 4963,
      "assumption\n": 4964,
      " {p": 4965,
      "Limit.": 4966,
      " (le_trans": 4967,
      " of_": 4968,
      "Dis": 4969,
      "ah": 4970,
      "quot_": 4971,
      "ub": 4972,
      "race": 4973,
      " (b₁": 4974,
      " rfl]\n": 4975,
      "jective_of_": 4976,
      " (Or.inr": 4977,
      "b)": 4978,
      "pullback": 4979,
      "replicate": 4980,
      " iInf_": 4981,
      " sSup": 4982,
      " MorphismProperty": 4983,
      " Part.": 4984,
      " tl": 4985,
      " (p.": 4986,
      " IsS": 4987,
      "Subgraph": 4988,
      "not_mem_": 4989,
      "prod]\n": 4990,
      " Module": 4991,
      " [Finset.sum_": 4992,
      " padicVal": 4993,
      "Row": 4994,
      "bounded": 4995,
      " sᶜ": 4996,
      "fld_simp": 4997,
      " m₁": 4998,
      " g).": 4999,
      " ℝ),": 5000,
      "orting": 5001,
      " Real.log": 5002,
      " (le_max": 5003,
      "diagonal_": 5004,
      " setTo": 5005,
      "damental": 5006,
      " 𝓟": 5007,
      "diff,": 5008,
      " f)\n": 5009,
      " only\n": 5010,
      "ne_zero.mpr": 5011,
      "ractionRing": 5012,
      " deriva": 5013,
      " note": 5014,
      ".zero_": 5015,
      ".ne_": 5016,
      "aemeasurable": 5017,
      "yoneda": 5018,
      " ys": 5019,
      "Cocone": 5020,
      " μ.": 5021,
      " eq_of_": 5022,
      "minimal": 5023,
      "pos.ne": 5024,
      " Ordinal.{u_": 5025,
      "Scalars": 5026,
      "p_cat\n": 5027,
      " FirstOrder.Language.": 5028,
      "Lift.": 5029,
      "Side": 5030,
      "linear_": 5031,
      "quotient": 5032,
      "rib": 5033,
      " Prim": 5034,
      " (M₁": 5035,
      "naturality": 5036,
      "Matrix.": 5037,
      "support,": 5038,
      ".hom_inv_": 5039,
      "polar": 5040,
      " rank": 5041,
      "m\n": 5042,
      " (θ": 5043,
      " (adj": 5044,
      " hL": 5045,
      "d_of_": 5046,
      " R₁": 5047,
      "top\n": 5048,
      ".mem_nhds": 5049,
      " exists_prop": 5050,
      "_iff.1": 5051,
      "ariation": 5052,
      "contradiction\n": 5053,
      "lue": 5054,
      "Topological": 5055,
      ".inv_hom_": 5056,
      "all_goals": 5057,
      "Ker": 5058,
      "ois": 5059,
      "alois": 5060,
      "dep": 5061,
      " ⟨p": 5062,
      " Mem": 5063,
      " (hc": 5064,
      "add_one": 5065,
      "nating": 5066,
      " contextual": 5067,
      " toIco": 5068,
      " one_smul]\n": 5069,
      "cancel₀": 5070,
      "{u,": 5071,
      " det_": 5072,
      " 5": 5073,
      "our": 5074,
      "quotient_": 5075,
      " cha": 5076,
      "nontrivial": 5077,
      " le_max": 5078,
      "le_of_ne": 5079,
      " not_forall": 5080,
      " hv\n": 5081,
      " pow": 5082,
      "_open": 5083,
      "ene": 5084,
      "ytic": 5085,
      " h.symm": 5086,
      "alytic": 5087,
      "rotation": 5088,
      "cale": 5089,
      " m'": 5090,
      "add]": 5091,
      " (measurable_": 5092,
      " hi⟩": 5093,
      "self.": 5094,
      "iring": 5095,
      ".factor": 5096,
      "edge": 5097,
      " div_mul_": 5098,
      "adjoin_": 5099,
      " Composition": 5100,
      "Homotopy": 5101,
      " Normed": 5102,
      " Unique": 5103,
      " hτ": 5104,
      " [a": 5105,
      " [g": 5106,
      " [x": 5107,
      "rian": 5108,
      " Iio": 5109,
      " mono": 5110,
      " (hu": 5111,
      " ha'": 5112,
      " GrothendieckTopology": 5113,
      " (mt": 5114,
      " add_comm]\n": 5115,
      " ⟨hx": 5116,
      " γ))": 5117,
      " hz,": 5118,
      " ContinuousMulti": 5119,
      "cancel]\n": 5120,
      "unit_": 5121,
      " iterate": 5122,
      "floor_": 5123,
      "vectorSpan": 5124,
      " FractionalIdeal.": 5125,
      " ⨳": 5126,
      "Action.": 5127,
      "At_of_": 5128,
      "Cat": 5129,
      "ry_": 5130,
      "slice_": 5131,
      " (ψ": 5132,
      "test": 5133,
      "ator_": 5134,
      " Asymptotics.": 5135,
      " rfl)\n": 5136,
      "transpose": 5137,
      ".total": 5138,
      "opNorm": 5139,
      "ne_zero\n": 5140,
      "hasDerivAt_": 5141,
      " (Or.inl": 5142,
      "Place": 5143,
      "irreducible": 5144,
      " ℱ": 5145,
      "Sym": 5146,
      "le]": 5147,
      " [lintegral_": 5148,
      " (for": 5149,
      "_of_ne": 5150,
      "FunLike.": 5151,
      " Set.inter_": 5152,
      "EquivOf": 5153,
      "Composition": 5154,
      ".presheaf": 5155,
      " Commute": 5156,
      "abel\n": 5157,
      "tfae_have": 5158,
      " 3)": 5159,
      " defaul": 5160,
      "_ne": 5161,
      "y\n": 5162,
      ").is": 5163,
      "subsingleton": 5164,
      " Porting": 5165,
      " (hn": 5166,
      "_of_le_": 5167,
      "succ_eq_": 5168,
      " [h]": 5169,
      " (Measure": 5170,
      " hyz": 5171,
      " add_comm,": 5172,
      "_ne_zero,": 5173,
      " op_": 5174,
      "units_": 5175,
      ".injEq": 5176,
      "OuterMeasure": 5177,
      "S)": 5178,
      "Spec": 5179,
      " [I": 5180,
      " [ne_": 5181,
      "ped": 5182,
      "size_": 5183,
      " n₁": 5184,
      "mem]\n": 5185,
      " Clifford": 5186,
      " MeasureTheory.Measure": 5187,
      "belian": 5188,
      "self_eq_": 5189,
      "Normal": 5190,
      " ‖f‖": 5191,
      "Meas": 5192,
      ".2)": 5193,
      "Epi": 5194,
      "snorm": 5195,
      "zsmul_": 5196,
      "inr": 5197,
      " [v": 5198,
      " ↑π": 5199,
      "Decomposition": 5200,
      " ↑(f": 5201,
      " φ.": 5202,
      " Int.ofNat_": 5203,
      "Pairwise": 5204,
      "Assoc": 5205,
      "ree_": 5206,
      "coprime": 5207,
      " hy]\n": 5208,
      " _).mp": 5209,
      " zero_mul]\n": 5210,
      ".cons_": 5211,
      "linder": 5212,
      " IntegrableOn": 5213,
      "push_neg": 5214,
      "Vec.": 5215,
      "superset": 5216,
      "push_cast\n": 5217,
      "Dist_": 5218,
      "Fac": 5219,
      "List.": 5220,
      "le_iff": 5221,
      " p))": 5222,
      " trivial": 5223,
      " K,": 5224,
      " (g₁": 5225,
      " ‖a": 5226,
      "Prop": 5227,
      " Discrete": 5228,
      ".b,": 5229,
      " hq,": 5230,
      "nonempty_": 5231,
      " le_antisymm\n": 5232,
      "verage_": 5233,
      ".induction_on": 5234,
      " iff_": 5235,
      "iver": 5236,
      "segm": 5237,
      " symm": 5238,
      " l.length": 5239,
      "_of_tendsto": 5240,
      "additive": 5241,
      "Subring": 5242,
      "Integer": 5243,
      "ker_": 5244,
      " hm,": 5245,
      ".continuous_": 5246,
      "solve_left": 5247,
      " (Multiset.": 5248,
      " |>": 5249,
      "Qu": 5250,
      " (↥": 5251,
      " (map_": 5252,
      "inl": 5253,
      " [map": 5254,
      "iUnion]\n": 5255,
      " hk,": 5256,
      "affineCombination": 5257,
      "convexH": 5258,
      "terminate": 5259,
      "Range_": 5260,
      " interior_": 5261,
      "ase_": 5262,
      "ethe": 5263,
      " f]\n": 5264,
      "toMatrix": 5265,
      "id\n": 5266,
      " IsIntegral": 5267,
      " Measure.restrict_": 5268,
      "Fun.": 5269,
      " hy⟩": 5270,
      " hn]\n": 5271,
      " q).": 5272,
      ".basis": 5273,
      " eq_comm]\n": 5274,
      "X_sub_C": 5275,
      "_ball": 5276,
      " u_10)": 5277,
      " ne_eq,": 5278,
      "aesop_cat\n": 5279,
      "StrictDeriv": 5280,
      "insert_of_mem": 5281,
      " (Continuous": 5282,
      " ⊗ₜ[R]": 5283,
      "etherian": 5284,
      "Lea": 5285,
      "part": 5286,
      "sAux": 5287,
      " [Algebra.": 5288,
      "ank": 5289,
      " PNat.": 5290,
      " w,": 5291,
      "intros": 5292,
      "Colimit.": 5293,
      "Cofan": 5294,
      " hi]\n": 5295,
      "Continuous_": 5296,
      ".mk_": 5297,
      " h2\n": 5298,
      ".toLinearMap": 5299,
      "ducing": 5300,
      " the": 5301,
      "_div_": 5302,
      "hoo": 5303,
      "snd_": 5304,
      " [disjoint_": 5305,
      " ⟨i": 5306,
      " Lef": 5307,
      "Infinite": 5308,
      " (Mo": 5309,
      " Finset.sum": 5310,
      ".inverse": 5311,
      "multiset_": 5312,
      "derivative": 5313,
      " aeso": 5314,
      ".norm_": 5315,
      "Ne": 5316,
      "Star": 5317,
      "₂⟩\n": 5318,
      "⦄,": 5319,
      "finsupp": 5320,
      "anish": 5321,
      " Pa": 5322,
      " g_": 5323,
      " erase": 5324,
      " (S₁": 5325,
      "ne_zero_": 5326,
      " (Icc": 5327,
      " uniform": 5328,
      " ContinuousOn": 5329,
      "target": 5330,
      " hij\n": 5331,
      "Part_": 5332,
      " HasDerivAt": 5333,
      ".basicOpen": 5334,
      " ‖y‖": 5335,
      " appen": 5336,
      " eq_self_iff_true,": 5337,
      ")]": 5338,
      "Sh": 5339,
      " (Subtype": 5340,
      " [of": 5341,
      " R\n": 5342,
      " pure": 5343,
      " 0]": 5344,
      "iff_left": 5345,
      " (x₀": 5346,
      " 1).": 5347,
      " le_total": 5348,
      " iso": 5349,
      " ↑n)": 5350,
      "meas_": 5351,
      " CauSeq": 5352,
      " ↪": 5353,
      " ⌊": 5354,
      "Lp.": 5355,
      "Y,": 5356,
      "shiftFunctor": 5357,
      "sphere": 5358,
      "find_": 5359,
      "ctan": 5360,
      " ⟨ha": 5361,
      "sublist": 5362,
      "_nf\n": 5363,
      "ill": 5364,
      " (Algebra.": 5365,
      "{u}": 5366,
      " Summable": 5367,
      " [hx]\n": 5368,
      "Triangle": 5369,
      " Number": 5370,
      "solutely": 5371,
      " (inv": 5372,
      " (log": 5373,
      " [dist_": 5374,
      "sian": 5375,
      "ifunctor": 5376,
      " i‖": 5377,
      "ven_": 5378,
      " whisker": 5379,
      "symm,": 5380,
      "verti": 5381,
      " conj": 5382,
      " (μ.restrict": 5383,
      "div_iff": 5384,
      "_iff_exists_": 5385,
      "own": 5386,
      ".leadingCoeff": 5387,
      "ne_zero_of_": 5388,
      " Complete": 5389,
      "_naturality": 5390,
      "orderOf_": 5391,
      "units": 5392,
      " (ZMod": 5393,
      " Module.rank": 5394,
      " note:": 5395,
      "Cy": 5396,
      "Last": 5397,
      "s₁": 5398,
      "ι,": 5399,
      " ?_⟩": 5400,
      " trans": 5401,
      " cs.": 5402,
      " add_mul,": 5403,
      "pi,": 5404,
      " Submodule.map_": 5405,
      "imp]\n": 5406,
      "_self,": 5407,
      "integral_eq_": 5408,
      " (∫⁻": 5409,
      " inferInstance": 5410,
      "OD": 5411,
      "_image_": 5412,
      "wise_": 5413,
      "zpow": 5414,
      " [dist_eq_": 5415,
      " C_": 5416,
      "_eq_self": 5417,
      "enum": 5418,
      " A,": 5419,
      " (h_": 5420,
      " simp⟩\n": 5421,
      " mul_right_": 5422,
      " (ih": 5423,
      " WittVector": 5424,
      " _).1": 5425,
      ".ball": 5426,
      " ⟨h,": 5427,
      "Factors_": 5428,
      " TopCat.": 5429,
      " CommRing": 5430,
      "empty_or_nonempty": 5431,
      ".v": 5432,
      "C_mul_": 5433,
      "spec": 5434,
      " h1,": 5435,
      "cov": 5436,
      "mul_left_": 5437,
      " l'": 5438,
      " ha⟩": 5439,
      " ((1": 5440,
      " ((algebraMap": 5441,
      "coe,\n": 5442,
      "im,": 5443,
      "joint.": 5444,
      "left_inv": 5445,
      "continuousAt_": 5446,
      "single,": 5447,
      " Homo": 5448,
      "Algebraic": 5449,
      " gcd_": 5450,
      "Dig": 5451,
      "L,": 5452,
      " nn": 5453,
      "cation": 5454,
      " EReal.": 5455,
      " t))": 5456,
      " (a₂": 5457,
      " SetTheory.": 5458,
      "dim": 5459,
      " cont": 5460,
      "Completion": 5461,
      "inj]\n": 5462,
      "lcm": 5463,
      "comap,": 5464,
      " ⟨g": 5465,
      " M₂": 5466,
      "quadratic": 5467,
      " (Ring": 5468,
      " [h_": 5469,
      " Set.preimage_": 5470,
      "imal_": 5471,
      " map_mul,": 5472,
      " List.prod_": 5473,
      "maximal": 5474,
      " exists_eq_": 5475,
      "nnreal_": 5476,
      " true_and_": 5477,
      "nth_rw": 5478,
      " AEStronglyMeasurable": 5479,
      "factorization": 5480,
      "le'": 5481,
      " [Ring": 5482,
      "rev,": 5483,
      "ull_": 5484,
      " R),": 5485,
      "tau": 5486,
      "s.card": 5487,
      "On\n": 5488,
      "smul_apply,": 5489,
      " (Ioi": 5490,
      ".swap": 5491,
      "nerProduct": 5492,
      "cancel_right]\n": 5493,
      "MonoidHom": 5494,
      "trivial_": 5495,
      "StrictFDeriv": 5496,
      "[μ]": 5497,
      "nstein": 5498,
      " ma": 5499,
      "SignedMeasure": 5500,
      "vsub": 5501,
      "leadingCoeff_": 5502,
      "dec": 5503,
      "repr": 5504,
      " x}": 5505,
      "toMeasurable": 5506,
      " M'": 5507,
      " Iff": 5508,
      " ?_⟩⟩\n": 5509,
      " cmp": 5510,
      " (b₂": 5511,
      " ↑y": 5512,
      "one_div": 5513,
      "triangle": 5514,
      "_left,": 5515,
      " HasSum": 5516,
      "Monoidal": 5517,
      " interior": 5518,
      "mt": 5519,
      " [B": 5520,
      "toNNReal_": 5521,
      " Lip": 5522,
      "add_neg]\n": 5523,
      "Blank": 5524,
      " NumberField.": 5525,
      "M)": 5526,
      "ce_eq_": 5527,
      "kh": 5528,
      "infinite": 5529,
      " ⟨w,": 5530,
      " P.part": 5531,
      " hx₁": 5532,
      "right_eq_": 5533,
      "zero_apply,": 5534,
      " Sur": 5535,
      "def]": 5536,
      "inter]\n": 5537,
      "delta": 5538,
      " WithBot.": 5539,
      ".trans_lt": 5540,
      " leadingCoeff_": 5541,
      " setIntegral_": 5542,
      "racter": 5543,
      "field_simp": 5544,
      " (abs_": 5545,
      "aussian": 5546,
      "Crossing": 5547,
      "Time": 5548,
      "ip_": 5549,
      " ber": 5550,
      " TypeVec.": 5551,
      " Rat": 5552,
      "aris": 5553,
      " ↑f": 5554,
      " simp)\n": 5555,
      "mono_": 5556,
      "IsoOf": 5557,
      "self_of_": 5558,
      " Function.Surjective": 5559,
      " neg_mul,": 5560,
      "surd": 5561,
      " Computation": 5562,
      "serves": 5563,
      " G.Walk": 5564,
      "LittleO_": 5565,
      "ofNat,": 5566,
      "sub_iff_add_": 5567,
      ".prod_": 5568,
      "Edist_": 5569,
      "MF": 5570,
      "Mas": 5571,
      "mall": 5572,
      "cod": 5573,
      " *]\n": 5574,
      "one\n": 5575,
      "nhdsWithin": 5576,
      " sub_add_": 5577,
      "Icc,": 5578,
      "Value": 5579,
      " [div_eq_mul_inv,": 5580,
      "eventuallyEq": 5581,
      " [con": 5582,
      "periodic": 5583,
      " ↑‖": 5584,
      "lie_": 5585,
      " (eventually_of_forall": 5586,
      "Embedding.": 5587,
      " RingHom": 5588,
      " a..b,": 5589,
      " measure_mono": 5590,
      " SimpleGraph.Walk": 5591,
      " Array": 5592,
      "Trailing": 5593,
      " SetTheory.PGame": 5594,
      "factorial_": 5595,
      " (Real.": 5596,
      " (univ": 5597,
      "ted.": 5598,
      " [inter_": 5599,
      "dered": 5600,
      "com": 5601,
      " ⟨y": 5602,
      "_eq_inv_": 5603,
      " y'": 5604,
      ".2.1": 5605,
      "Subsingleton": 5606,
      "disc": 5607,
      "two]\n": 5608,
      "dvd_iff_": 5609,
      " abs": 5610,
      "seq_": 5611,
      "cumcenter": 5612,
      " PartENat.": 5613,
      "2]\n": 5614,
      "ren": 5615,
      " split": 5616,
      " cexp": 5617,
      "Inverse": 5618,
      " ↑r": 5619,
      " (Function.": 5620,
      "On,": 5621,
      "Fun_": 5622,
      "dirac": 5623,
      " {b": 5624,
      "Integrable_": 5625,
      "cho": 5626,
      "Local": 5627,
      "insertNth": 5628,
      ".measure_": 5629,
      "ext_iff]\n": 5630,
      " h1\n": 5631,
      "ratedDeriv": 5632,
      " dif_neg": 5633,
      " LinearIsometry": 5634,
      "le_iff_le_": 5635,
      "le_add_left": 5636,
      "summable": 5637,
      "derivative_": 5638,
      "rreducible": 5639,
      " degree": 5640,
      ".tendsto_": 5641,
      "CDF": 5642,
      "LM": 5643,
      "gin": 5644,
      "pper": 5645,
      " factor": 5646,
      " pa": 5647,
      " X),": 5648,
      "add,\n": 5649,
      " Nat.zero_": 5650,
      "const\n": 5651,
      " ContMDiff": 5652,
      "Element": 5653,
      " single": 5654,
      "radedObject": 5655,
      "A)": 5656,
      "erase_": 5657,
      "g\n": 5658,
      " ((i": 5659,
      " J.": 5660,
      " div_le_": 5661,
      " LieSubalgebra": 5662,
      "Exact": 5663,
      ".ae_eq_": 5664,
      "alizedFactors": 5665,
      " assumption\n": 5666,
      " Units.val_": 5667,
      "HomologyData)": 5668,
      "tauto\n": 5669,
      " length": 5670,
      ")⟩\n": 5671,
      "CLM": 5672,
      "fix": 5673,
      "rat_": 5674,
      ").op": 5675,
      "sub_of_": 5676,
      "negSucc": 5677,
      "Col": 5678,
      "Segm": 5679,
      " ‖c": 5680,
      " Walk": 5681,
      " ih]\n": 5682,
      "ndist": 5683,
      "nnnorm_": 5684,
      "const.": 5685,
      " [ih": 5686,
      " Functor.map_": 5687,
      "Distrib": 5688,
      " iUnion_": 5689,
      "By_": 5690,
      "Symm": 5691,
      "_le_of_": 5692,
      "rop_": 5693,
      " fst": 5694,
      "mul'": 5695,
      "riangle": 5696,
      "pose_": 5697,
      " E'": 5698,
      "add_apply,": 5699,
      " e₂": 5700,
      " hfi": 5701,
      " mem_of_": 5702,
      " hi⟩\n": 5703,
      "_iff_eq_": 5704,
      " hu,": 5705,
      " absurd": 5706,
      "posite": 5707,
      "Ico,": 5708,
      "solution": 5709,
      "floor": 5710,
      " gcongr;": 5711,
      "iver.": 5712,
      " coeff": 5713,
      ".one_": 5714,
      ".image_": 5715,
      "Cat)": 5716,
      "_neg_": 5717,
      "ₗ[": 5718,
      "_eq_iff_": 5719,
      "intros\n": 5720,
      "prox": 5721,
      " e₁": 5722,
      "idem": 5723,
      "pair_": 5724,
      " {y": 5725,
      " le_refl": 5726,
      "choose_": 5727,
      "permutation": 5728,
      " ℍ": 5729,
      "Lattice": 5730,
      "ind_": 5731,
      " hlt": 5732,
      " snd": 5733,
      ").elim\n": 5734,
      "add_left": 5735,
      "ic.": 5736,
      " (measurableSet_": 5737,
      "Equiv_symm": 5738,
      " q,": 5739,
      " contDiff": 5740,
      "Complete": 5741,
      "Locus": 5742,
      "dexp_": 5743,
      " FormalMultilinearSeries": 5744,
      " nonempty_fintype": 5745,
      "Preserving": 5746,
      " IntermediateField.": 5747,
      " ≡": 5748,
      " ex": 5749,
      "Abelian": 5750,
      "at_eq_": 5751,
      "eventually_": 5752,
      " (χ": 5753,
      "restric": 5754,
      " a]\n": 5755,
      " M₁)": 5756,
      " ι'": 5757,
      " ((p": 5758,
      " (F.obj": 5759,
      " Bdd": 5760,
      "ne_zero]\n": 5761,
      " add_left_": 5762,
      "Opens.": 5763,
      "union_right": 5764,
      "NormE": 5765,
      " τ)": 5766,
      " AlgHom.map_": 5767,
      " succ_": 5768,
      "g)": 5769,
      "ilt": 5770,
      "nge_": 5771,
      "sdiff": 5772,
      "injective_": 5773,
      "alter": 5774,
      "fin_": 5775,
      " =ᵐ": 5776,
      " RBNode": 5777,
      " t₁": 5778,
      "lici": 5779,
      "Proces": 5780,
      " isUnit_": 5781,
      ".from": 5782,
      "heaf_": 5783,
      " Upper": 5784,
      " Simplex": 5785,
      " ⟨⟨x,": 5786,
      "Multiplic": 5787,
      "Core": 5788,
      " ≪≫": 5789,
      "licial": 5790,
      "Sigma": 5791,
      "X)": 5792,
      "ain": 5793,
      "l]": 5794,
      " [o": 5795,
      " S₁": 5796,
      " Fintype": 5797,
      " (filter": 5798,
      " +ᵥ": 5799,
      "_nth": 5800,
      " (pullback": 5801,
      "noncomm": 5802,
      " V,": 5803,
      " hn⟩": 5804,
      " InnerProduct": 5805,
      "sup'": 5806,
      "genEigen": 5807,
      " (⇑(": 5808,
      "BoundedFormula": 5809,
      " ⟪x,": 5810,
      " LieSubmodule.": 5811,
      "lineMap": 5812,
      "Structure": 5813,
      "spect": 5814,
      "t]\n": 5815,
      "emeasurable_": 5816,
      " [measure_": 5817,
      "connected_": 5818,
      " ⟨r": 5819,
      "intCast_": 5820,
      "ceil": 5821,
      " (h'": 5822,
      "_nn": 5823,
      " B.": 5824,
      " Bi": 5825,
      "associ": 5826,
      "_same": 5827,
      "smul,\n": 5828,
      " (Quotient.": 5829,
      "Iso_hom": 5830,
      "Independent.": 5831,
      " Localization": 5832,
      "Diagonal": 5833,
      " cancel_epi": 5834,
      " Char)": 5835,
      " Real.Angle.": 5836,
      ".get": 5837,
      "Whi": 5838,
      " hea": 5839,
      " [image_": 5840,
      "1)\n": 5841,
      " Cof": 5842,
      "std": 5843,
      "_eq_zero]\n": 5844,
      " ((f": 5845,
      " K[X])": 5846,
      " le_or_lt": 5847,
      " ℝ≥0∞": 5848,
      " eq_comm,": 5849,
      "cycleType": 5850,
      "TransGen": 5851,
      ").trans_lt": 5852,
      "oangle_eq_pi_div_two": 5853,
      " positivity\n": 5854,
      "b\n": 5855,
      " hω": 5856,
      " [lt_": 5857,
      "isIso": 5858,
      " ne": 5859,
      " n]\n": 5860,
      " α✝)": 5861,
      " ⟨-": 5862,
      " ⟨1,": 5863,
      " push": 5864,
      " d,": 5865,
      "ltra": 5866,
      "dig": 5867,
      " hy⟩\n": 5868,
      " hb]\n": 5869,
      "image2": 5870,
      "OfFin": 5871,
      " CategoryTheory.Functor": 5872,
      " zero_le_one": 5873,
      " LinearMap.ker": 5874,
      "compl_iff,": 5875,
      "tomy": 5876,
      "eval₂": 5877,
      " x‖₊": 5878,
      " from\n": 5879,
      " lt_of_lt_of_le": 5880,
      "not,": 5881,
      " nhdsWithin_": 5882,
      " CoxeterSystem": 5883,
      ".sum": 5884,
      "cle_": 5885,
      "sUnion": 5886,
      " h)]\n": 5887,
      " Pos": 5888,
      " (hom": 5889,
      "_not": 5890,
      " Nat.card": 5891,
      "tensor_": 5892,
      "pairwise_": 5893,
      ".inner_": 5894,
      " (Loc": 5895,
      "roots_": 5896,
      " and_congr_": 5897,
      "roup_": 5898,
      " count_": 5899,
      "alanced": 5900,
      "ox.": 5901,
      " h]": 5902,
      " ⟨s": 5903,
      " r).": 5904,
      " E')": 5905,
      " l\n": 5906,
      "add_one,": 5907,
      "sets": 5908,
      " inst": 5909,
      " q\n": 5910,
      " (Polynomial.": 5911,
      " CategoryTheory.Pre": 5912,
      ".bind": 5913,
      " colimit.": 5914,
      " Multiset.map_": 5915,
      " ω)": 5916,
      "rpow_of_": 5917,
      " eqToHom": 5918,
      " image2": 5919,
      " Valuation": 5920,
      ".choose": 5921,
      "UB": 5922,
      "_mk": 5923,
      "n]\n": 5924,
      "next": 5925,
      "ume": 5926,
      "{v,": 5927,
      "rad": 5928,
      " ⟨l,": 5929,
      " N,": 5930,
      " H₁": 5931,
      " μ))": 5932,
      " (g₂": 5933,
      " mem_iUnion": 5934,
      "smul_of_": 5935,
      ".realize_": 5936,
      " _),\n": 5937,
      "head_": 5938,
      "hasBasis_": 5939,
      " (hf.": 5940,
      " LinearEquiv.": 5941,
      " η)": 5942,
      "factors": 5943,
      "localization": 5944,
      " ((↑)": 5945,
      "compose": 5946,
      "Ap": 5947,
      "]]": 5948,
      "ize": 5949,
      "₀]\n": 5950,
      " (exp": 5951,
      " hat": 5952,
      " [Measure": 5953,
      "d_simp\n": 5954,
      " (hl": 5955,
      " hp₁": 5956,
      " (c₁": 5957,
      " (c₂": 5958,
      "_swap": 5959,
      " inv_mul_": 5960,
      " hw\n": 5961,
      "Category": 5962,
      " hε\n": 5963,
      "germ": 5964,
      "Bounds": 5965,
      " Π": 5966,
      "$>": 5967,
      "Factorial": 5968,
      "factorial": 5969,
      "k]": 5970,
      " anti": 5971,
      " _h": 5972,
      "ishe": 5973,
      ").map_": 5974,
      " L₁": 5975,
      " tsum_": 5976,
      " {i": 5977,
      ".biUnion": 5978,
      "Degree_eq_": 5979,
      ".mem_coe,": 5980,
      "finrank_": 5981,
      "Ico_": 5982,
      "pos_of_ne_zero": 5983,
      " iteratedFDeriv": 5984,
      "false_eq_": 5985,
      " _root_.map_": 5986,
      "rating": 5987,
      " [Fin.": 5988,
      "Equivalence": 5989,
      " RCLike.": 5990,
      "damentalDomain": 5991,
      "LUB": 5992,
      "R,": 5993,
      "sSup_": 5994,
      " (⨆": 5995,
      " (coeff": 5996,
      " [ab": 5997,
      " fourier": 5998,
      " Sym2": 5999,
      " mod": 6000,
      "take_": 6001,
      " erw": 6002,
      " (FractionRing": 6003,
      " add_tsub_": 6004,
      " CategoryTheory.G": 6005,
      " ENNReal.rpow_": 6006,
      "nhdsWithin_": 6007,
      "Ortho": 6008,
      "scPochhammer": 6009,
      " hPz": 6010,
      " (inl": 6011,
      " sub_eq_add_neg,": 6012,
      ".forall": 6013,
      "Support_": 6014,
      "versal": 6015,
      " ≥": 6016,
      "family": 6017,
      "sOf": 6018,
      "smooth": 6019,
      "₂'": 6020,
      " (dvd_": 6021,
      " (update": 6022,
      "ord.": 6023,
      "orbit": 6024,
      "leph": 6025,
      "unpair": 6026,
      " type": 6027,
      " (aeval": 6028,
      " (hb": 6029,
      " Bounded": 6030,
      ".symm]\n": 6031,
      " ε)": 6032,
      "Mod_": 6033,
      "subset\n": 6034,
      " Ordinal.{max": 6035,
      " [Nat.add_": 6036,
      "angle_eq_": 6037,
      ".measurableSet_": 6038,
      " inv_mul_cancel": 6039,
      "Tensor_": 6040,
      " orderOf": 6041,
      " [ne_eq,": 6042,
      "anishing": 6043,
      " Pairwise": 6044,
      "Quot": 6045,
      "a\n": 6046,
      "π,": 6047,
      "isS": 6048,
      " Chain": 6049,
      "comp,\n": 6050,
      "_of_mono": 6051,
      "_nil": 6052,
      " X\n": 6053,
      " k))": 6054,
      "Derived": 6055,
      " Nat.mod_": 6056,
      " this.": 6057,
      "assoc]": 6058,
      "assoc_of": 6059,
      " ↦\n": 6060,
      "metic": 6061,
      "close": 6062,
      "Comparis": 6063,
      ".condition": 6064,
      "ne_zero.2": 6065,
      "_eq_mul_inv]\n": 6066,
      "of_nonneg_left": 6067,
      "^[n]": 6068,
      "fiber": 6069,
      "CentralSeries": 6070,
      "directed": 6071,
      " NatTrans.": 6072,
      "ariationOn": 6073,
      "assoc_of%": 6074,
      " insert_": 6075,
      "1.": 6076,
      "1]\n": 6077,
      "ffin": 6078,
      "int.": 6079,
      "repr_": 6080,
      " R,": 6081,
      "_eq_empty": 6082,
      " (x₁": 6083,
      " (hv": 6084,
      " ha)": 6085,
      " j).": 6086,
      "carrier": 6087,
      " hs'": 6088,
      " W.a": 6089,
      " [mul_comm": 6090,
      " [mul_comm]\n": 6091,
      " p.natDegree": 6092,
      " pow_zero,": 6093,
      "vPolynomial": 6094,
      " Multiset.mem_": 6095,
      "rtAt": 6096,
      " linarith\n": 6097,
      " BoxIntegral.": 6098,
      " DirectSum": 6099,
      "iltration": 6100,
      "Jacobian": 6101,
      "N,": 6102,
      "arou": 6103,
      "ning": 6104,
      " (pow": 6105,
      "or]\n": 6106,
      "emod_": 6107,
      " [Ideal.": 6108,
      "thmetic": 6109,
      "rithmetic": 6110,
      " F.obj": 6111,
      " ⟨d,": 6112,
      "s_eq": 6113,
      " y₁": 6114,
      "iff_mul_": 6115,
      " Ab": 6116,
      " Anti": 6117,
      " ha)\n": 6118,
      " add_right_": 6119,
      " isEmpty": 6120,
      "_equ": 6121,
      ".eval": 6122,
      "ameR": 6123,
      "struct": 6124,
      " Semi": 6125,
      " TopologicalSpace": 6126,
      "lt_succ_self": 6127,
      "fld_simps]\n": 6128,
      "Kernel_": 6129,
      "convexHull": 6130,
      "aroubi": 6131,
      "End_": 6132,
      "Weight": 6133,
      "π_": 6134,
      " num": 6135,
      "cated": 6136,
      "normalize": 6137,
      " IsCoprime": 6138,
      " (S₂": 6139,
      "topped": 6140,
      "not_mem": 6141,
      "abi": 6142,
      " List.map_": 6143,
      " cos_": 6144,
      "union_left": 6145,
      " (-(": 6146,
      "tricho": 6147,
      "Infty": 6148,
      " [eventually_": 6149,
      "false]\n": 6150,
      " sub_eq_zero,": 6151,
      ".toList": 6152,
      "BigOWith": 6153,
      "Types.": 6154,
      "points": 6155,
      " Equiv.Perm.": 6156,
      "verage": 6157,
      "Equivalen": 6158,
      "vadd_": 6159,
      " [ae_": 6160,
      " fiel": 6161,
      "eak": 6162,
      "Realize": 6163,
      "_of_lt": 6164,
      " mem_singleton": 6165,
      "prod_of_": 6166,
      " one_smul,": 6167,
      "Sets": 6168,
      " ⋯⟩": 6169,
      "Addi": 6170,
      " ¬p": 6171,
      " Classical.not_": 6172,
      "quaref": 6173,
      " Unit": 6174,
      "'',": 6175,
      "Bifunctor": 6176,
      "ener": 6177,
      "sIso": 6178,
      " (inv_": 6179,
      " →ᵇ": 6180,
      "le_coe": 6181,
      " mul_smul,": 6182,
      " j'": 6183,
      "idable": 6184,
      "ext1\n": 6185,
      ".2]\n": 6186,
      ".toFinset": 6187,
      "subset_of_": 6188,
      " not_false_eq_": 6189,
      "Multiset": 6190,
      "insert_self": 6191,
      "SimpleFunc.": 6192,
      " inf_le_": 6193,
      " Ordinal.{u_4": 6194,
      "combination": 6195,
      "licialObject": 6196,
      " ℵ": 6197,
      " integrable_": 6198,
      ".D": 6199,
      "Kan": 6200,
      "_top": 6201,
      "α,": 6202,
      " (succ": 6203,
      " (div_": 6204,
      "leted": 6205,
      " [mul": 6206,
      " [sup_": 6207,
      "decode": 6208,
      "Reflection": 6209,
      " gau": 6210,
      " (hy": 6211,
      " ↑q": 6212,
      " X))": 6213,
      "lt]": 6214,
      "singleton_subset_": 6215,
      " _).trans_": 6216,
      "forwar": 6217,
      "Localized": 6218,
      "Aux_": 6219,
      " (comap": 6220,
      " WeierstrassCurve.Jacobian": 6221,
      " AEMeasurable": 6222,
      " ⟨by": 6223,
      "Nilpotent": 6224,
      " equiv": 6225,
      "ape": 6226,
      "by": 6227,
      "ump": 6228,
      " (Φ": 6229,
      "ori": 6230,
      " [abs_": 6231,
      " fderiv": 6232,
      " false": 6233,
      " s)\n": 6234,
      " m).": 6235,
      " hxs": 6236,
      " (nat": 6237,
      " li": 6238,
      "s.mk": 6239,
      " Nat.Prime": 6240,
      "meval_": 6241,
      " ENNReal.mul_": 6242,
      "self_mem_nhdsWithin": 6243,
      " ContinuousAt": 6244,
      " ν)": 6245,
      "Noetherian": 6246,
      "perm_": 6247,
      "measurableSet": 6248,
      "powersetCar": 6249,
      " abs_of_nonneg": 6250,
      " Π₀": 6251,
      "trichotomy": 6252,
      " length_": 6253,
      ".neg_": 6254,
      "DS": 6255,
      "H)": 6256,
      " (one_": 6257,
      " h_in": 6258,
      "mem_of_": 6259,
      "its_": 6260,
      "neg_eq_": 6261,
      " (hr": 6262,
      " (sq": 6263,
      " v'": 6264,
      " ι\n": 6265,
      "nonZeroDivisor": 6266,
      " (Sigma": 6267,
      " hn'": 6268,
      " add_assoc]\n": 6269,
      " map_add,": 6270,
      " (e.symm": 6271,
      "setOf_eq]\n": 6272,
      " (⇑f)": 6273,
      "biUnion_": 6274,
      "duced_": 6275,
      " pullback.fst": 6276,
      "flect": 6277,
      "index,": 6278,
      "by_contra!": 6279,
      "tf8": 6280,
      " (le_of_eq": 6281,
      " (forget": 6282,
      ".oangle_": 6283,
      "shift": 6284,
      " (ζ": 6285,
      " Tur": 6286,
      " ⟨l": 6287,
      " pp": 6288,
      "property": 6289,
      " hf)": 6290,
      " z‖": 6291,
      ".2⟩\n": 6292,
      " μ\n": 6293,
      "On_of_": 6294,
      "val]\n": 6295,
      " 2,": 6296,
      "ker,": 6297,
      " smul_smul,": 6298,
      " Function.update": 6299,
      " SimpleFunc": 6300,
      "_nonneg.2": 6301,
      " he\n": 6302,
      " [Function.comp_apply,": 6303,
      " LinearMap.map_": 6304,
      " PosNum": 6305,
      "C]\n": 6306,
      "Cyclotomic": 6307,
      "fg": 6308,
      "o,": 6309,
      " (congr_arg": 6310,
      " h₄": 6311,
      "peat": 6312,
      "le_pow_": 6313,
      " hausdorff": 6314,
      " G'": 6315,
      "setLIntegral_": 6316,
      " le_sup_": 6317,
      "card_le_": 6318,
      "ighbor": 6319,
      ".filter": 6320,
      ".bot_": 6321,
      "Change_": 6322,
      "orderOf": 6323,
      "Localization.": 6324,
      " MulAction.": 6325,
      " PrimeSpectrum": 6326,
      " (ne_of_gt": 6327,
      "Aux,": 6328,
      " ⅟": 6329,
      "Gene": 6330,
      "eap": 6331,
      "rem": 6332,
      "emb": 6333,
      " [Matrix.": 6334,
      " x),": 6335,
      " ⟨ε": 6336,
      " ⟨U,": 6337,
      " y)\n": 6338,
      "Int_": 6339,
      "inv_eq_": 6340,
      "_apply]": 6341,
      " hp0": 6342,
      " hy)\n": 6343,
      ".index": 6344,
      "ne_of_": 6345,
      "univ]": 6346,
      "limsup": 6347,
      "Finsupp_": 6348,
      " one_lt_": 6349,
      "RingEnd": 6350,
      ".conj": 6351,
      "Locus_": 6352,
      " p.2)": 6353,
      "imp_": 6354,
      "Hom.id": 6355,
      ".homology": 6356,
      "_pos,": 6357,
      "preimage]\n": 6358,
      " diam": 6359,
      "Valuation": 6360,
      "singularPart": 6361,
      "nontriviality": 6362,
      "restrict_of_": 6363,
      "PDF": 6364,
      "X]\n": 6365,
      "cpow": 6366,
      "lintegral": 6367,
      " (Option": 6368,
      " hs_": 6369,
      " [subset_": 6370,
      " uR)": 6371,
      "ver_": 6372,
      "atBot_": 6373,
      "ence": 6374,
      " X₁": 6375,
      "log_": 6376,
      " Infinite": 6377,
      " hg'": 6378,
      " ⟨h₁,": 6379,
      " o.oangle": 6380,
      " Complex.ofReal_": 6381,
      " 3\n": 6382,
      " Batteries.R": 6383,
      "_equiv": 6384,
      "G)": 6385,
      " x⁻¹": 6386,
      " step": 6387,
      " ⟨q,": 6388,
      "ent_eq_": 6389,
      " G.map": 6390,
      " G₀)": 6391,
      " (Fintype.card": 6392,
      " K))": 6393,
      "Fun,": 6394,
      " hp'": 6395,
      " mem_setOf_eq,": 6396,
      "irr": 6397,
      " ZF": 6398,
      "Prepartition": 6399,
      "cancel_left]\n": 6400,
      "surjective_": 6401,
      ").trans\n": 6402,
      "_pos\n": 6403,
      "_self]\n": 6404,
      " (iso": 6405,
      "pos_of_pos": 6406,
      " ite_": 6407,
      "categ": 6408,
      "antidiagonal": 6409,
      " positivity)": 6410,
      "ihilator": 6411,
      " Left": 6412,
      "Cau": 6413,
      "Galois": 6414,
      "m]": 6415,
      "⟩,\n": 6416,
      " [di": 6417,
      " [and_": 6418,
      "alf": 6419,
      " α).": 6420,
      " iSup": 6421,
      "proper": 6422,
      " k).": 6423,
      "addHaar": 6424,
      " W'.": 6425,
      " _).mpr": 6426,
      "uallySing": 6427,
      "eval₂_": 6428,
      " Finset.sum_congr": 6429,
      "utuallySing": 6430,
      "_eq_zero_iff,": 6431,
      "iterate_": 6432,
      " h0\n": 6433,
      " FractionalIdeal": 6434,
      " IsPrimitiveRoot.": 6435,
      " Ordinal.{u_4})": 6436,
      "utuallySingular": 6437,
      "Cli": 6438,
      "fac": 6439,
      "nalytic": 6440,
      " [Set": 6441,
      "def_": 6442,
      "eq'": 6443,
      " induction": 6444,
      "limsup_": 6445,
      "not_le": 6446,
      " ⟨hx,": 6447,
      " Matrix.mul_": 6448,
      ".measurable_": 6449,
      "apply_fun": 6450,
      " LinearIndependent": 6451,
      "cons]": 6452,
      "toLinearMap": 6453,
      " (inr": 6454,
      "reduce": 6455,
      " pullback.snd": 6456,
      " single_": 6457,
      "of_nonneg_right": 6458,
      "structuredArrow": 6459,
      "inated": 6460,
      " sign": 6461,
      ".comm": 6462,
      ".ne_zero": 6463,
      "Lp_": 6464,
      "d)": 6465,
      "iber": 6466,
      "δ,": 6467,
      "ract_": 6468,
      " F).": 6469,
      "map_eq_": 6470,
      "ne,": 6471,
      " PMF": 6472,
      "add_right": 6473,
      " val": 6474,
      " z.im": 6475,
      "Conj": 6476,
      " isOpen": 6477,
      " one_le_": 6478,
      ".coe_to": 6479,
      "Char_": 6480,
      " [Linear": 6481,
      " lt_irrefl": 6482,
      "gcd_eq_": 6483,
      "acobs": 6484,
      "vecMul": 6485,
      " Arrow": 6486,
      " Seto": 6487,
      " PowerSeries.": 6488,
      "ltrafilter": 6489,
      " th": 6490,
      "volume_": 6491,
      "leadingCoeff": 6492,
      " b]\n": 6493,
      " ⟨e": 6494,
      " R[X]": 6495,
      " Even": 6496,
      " ℝ,": 6497,
      " [hi": 6498,
      " Nat.sub_": 6499,
      " hn)\n": 6500,
      "Continu": 6501,
      "old_": 6502,
      " real_": 6503,
      " apply_": 6504,
      "₁₂]": 6505,
      " comp_id]\n": 6506,
      " line": 6507,
      "multiplicity_": 6508,
      "Homogeneous": 6509,
      "nil,": 6510,
      "charpoly": 6511,
      "radius": 6512,
      ".preimage_": 6513,
      "O[": 6514,
      "_prime": 6515,
      "bounded_": 6516,
      "k\n": 6517,
      "r\n": 6518,
      "ter_": 6519,
      " =O[": 6520,
      "eq,\n": 6521,
      " x_in": 6522,
      " s),": 6523,
      "le_succ": 6524,
      " A))": 6525,
      " Arithmetic": 6526,
      "casesOn": 6527,
      "Homological": 6528,
      " (m0": 6529,
      " indicator": 6530,
      "smul_mem": 6531,
      " (Ioc": 6532,
      "Clopen": 6533,
      " Int.natAbs_": 6534,
      "pos_right": 6535,
      "subset,": 6536,
      "ableArrow": 6537,
      "exponent_": 6538,
      "const_mul": 6539,
      "falso": 6540,
      "eq_zero]": 6541,
      "eq_zero_iff_": 6542,
      "lipschitz": 6543,
      "LinearEquiv": 6544,
      "undle": 6545,
      "osableArrow": 6546,
      " orderOf_": 6547,
      " right_": 6548,
      "Same": 6549,
      "[p": 6550,
      "_contra": 6551,
      "_ih": 6552,
      "frequently": 6553,
      "zsmul": 6554,
      "}\n": 6555,
      "φ,": 6556,
      "ordin": 6557,
      " [D": 6558,
      " i.succ": 6559,
      " M))": 6560,
      "_eq_mk": 6561,
      "_eq_sum_": 6562,
      " m0)": 6563,
      " v).": 6564,
      "Under": 6565,
      " mul_lt_": 6566,
      "zero_le": 6567,
      " hs)": 6568,
      "Submodule_": 6569,
      ".total_": 6570,
      " WSeq": 6571,
      "_spe": 6572,
      " hg]\n": 6573,
      "inter_iff,": 6574,
      "arian": 6575,
      "fintype_": 6576,
      " StrictMono": 6577,
      "geometric": 6578,
      ")⁻¹": 6579,
      "Edist": 6580,
      "Line": 6581,
      "_[p": 6582,
      "✝¹": 6583,
      " (mul": 6584,
      " [lift": 6585,
      " utf8": 6586,
      " S₂)": 6587,
      "strong": 6588,
      " Padic": 6589,
      " L₂": 6590,
      "left'": 6591,
      " jacobiTheta": 6592,
      "dense": 6593,
      "continuousOn_": 6594,
      ".ne',": 6595,
      " star_": 6596,
      "Pla": 6597,
      "Upper": 6598,
      " FiniteDimensional.": 6599,
      "falso\n": 6600,
      "do": 6601,
      "ection": 6602,
      "fer": 6603,
      "ℒp_": 6604,
      "onN": 6605,
      " im": 6606,
      " Sieve": 6607,
      " E\n": 6608,
      " tan": 6609,
      " edist_": 6610,
      " rfl)": 6611,
      " X₂": 6612,
      " G),": 6613,
      "add'": 6614,
      " zpow_natCast": 6615,
      "image_of_": 6616,
      " Profinite": 6617,
      " (Ico": 6618,
      "Set)": 6619,
      " (-1": 6620,
      " two_ne_zero": 6621,
      " ℵ₀": 6622,
      "0]": 6623,
      ">]": 6624,
      "Fract": 6625,
      " h),": 6626,
      " spectrum": 6627,
      "apply]": 6628,
      " g))": 6629,
      " H₂": 6630,
      "uster": 6631,
      " μ[": 6632,
      "Product_": 6633,
      " Code": 6634,
      " hv,": 6635,
      " proj": 6636,
      "rting": 6637,
      "rivialization": 6638,
      "X_pow": 6639,
      " (Finset": 6640,
      "jective_iff_": 6641,
      " Ordering": 6642,
      "exact_mod_cast": 6643,
      " cfcₙ": 6644,
      " EuclideanGeometry.": 6645,
      "PresheafedSpace)": 6646,
      " LipschitzWith": 6647,
      "Action": 6648,
      "_sum": 6649,
      "mble": 6650,
      " Triangle": 6651,
      " by_contra": 6652,
      "mul_right_": 6653,
      " t₂": 6654,
      " vsub_": 6655,
      "zero_or_": 6656,
      " |(": 6657,
      " hp]\n": 6658,
      " hb⟩": 6659,
      " hnm": 6660,
      " DFinsupp.": 6661,
      "sup,": 6662,
      " rfl⟩⟩\n": 6663,
      "Chain": 6664,
      " pow_add,": 6665,
      "_subset_Icc": 6666,
      " x✝¹": 6667,
      "pologicalClosure": 6668,
      "oroot": 6669,
      "arcsin": 6670,
      "vertible": 6671,
      "properDivisor": 6672,
      "Continued": 6673,
      " ℬ": 6674,
      " 𝕎": 6675,
      ".rnDeriv": 6676,
      "Two": 6677,
      " (id": 6678,
      " use": 6679,
      " T.": 6680,
      "section": 6681,
      " Sheaf": 6682,
      " sInf": 6683,
      "topp": 6684,
      "_eq_bot": 6685,
      " c₁₂": 6686,
      "encode": 6687,
      " ↑k": 6688,
      " mul_one": 6689,
      " (p₃": 6690,
      "norm]\n": 6691,
      "one_sub_": 6692,
      " (m₁": 6693,
      " 1)))": 6694,
      " conv": 6695,
      " toFun": 6696,
      " smul_zero]\n": 6697,
      " div_eq_mul_inv,": 6698,
      "s_of_nonneg": 6699,
      " Ideal.span": 6700,
      ").hom.app": 6701,
      " Fin.val_": 6702,
      "alizedContinued": 6703,
      "Single": 6704,
      "Cycles": 6705,
      "iteratedFDerivWithin": 6706,
      "Dual_": 6707,
      " change": 6708,
      "eneralizedContinued": 6709,
      " Batteries.RBNode": 6710,
      "K,": 6711,
      "Metric.": 6712,
      "ping": 6713,
      " Lim": 6714,
      " hx.1": 6715,
      " linear": 6716,
      " B,": 6717,
      "_smul]\n": 6718,
      ".isOpen": 6719,
      ".eventually": 6720,
      " ∂ν": 6721,
      " ContinuousMap": 6722,
      "exp_neg_": 6723,
      " [pow_succ,": 6724,
      "⟫_ℝ": 6725,
      " nhdsWithin": 6726,
      "ennreal_": 6727,
      "roupoid": 6728,
      " intervalIntegral.integral_": 6729,
      " ContinuousMultilinearMap.": 6730,
      "Comparison": 6731,
      " Turing.": 6732,
      "CyclotomicExtension": 6733,
      "Atom": 6734,
      " heq": 6735,
      " [d": 6736,
      " [mk": 6737,
      " [max": 6738,
      " [quot_": 6739,
      "exfalso\n": 6740,
      "cave": 6741,
      " p1": 6742,
      "iff_le_": 6743,
      "Induction": 6744,
      " hi)\n": 6745,
      ".symm.": 6746,
      " Den": 6747,
      " Jacobian": 6748,
      "_iff_is": 6749,
      " normSq": 6750,
      "ring_nf\n": 6751,
      " pow_mul,": 6752,
      "compl]\n": 6753,
      "monomial_": 6754,
      "linearIndependent_": 6755,
      ").ne'\n": 6756,
      "tinuant": 6757,
      " False.elim": 6758,
      "PowerSeries": 6759,
      " 𝔖": 6760,
      "Polynomial.": 6761,
      "c_": 6762,
      "fp": 6763,
      "i\n": 6764,
      "spa": 6765,
      " fib": 6766,
      " y.": 6767,
      "easure_ne_top": 6768,
      "Map,": 6769,
      " (mon": 6770,
      "natTrailing": 6771,
      " hc]\n": 6772,
      "two_mul_": 6773,
      " ListBlank": 6774,
      " sub_self]\n": 6775,
      "Unit_of_": 6776,
      " Matrix.det_": 6777,
      " (mem_univ": 6778,
      " [Finset.coe_": 6779,
      " u_11)": 6780,
      ".trim": 6781,
      " sinh": 6782,
      "Periodic": 6783,
      " →ₐ[": 6784,
      " →ₛₗ[": 6785,
      " [Subtype.": 6786,
      " CliffordAlgebra": 6787,
      " (Module.": 6788,
      ".subset_": 6789,
      "Over": 6790,
      " bs": 6791,
      "eqToHom": 6792,
      "mul_apply,": 6793,
      " ⟨n": 6794,
      " Map": 6795,
      " C,": 6796,
      " 0))": 6797,
      "version": 6798,
      " one_div,": 6799,
      "_ne_zero]\n": 6800,
      " ε0": 6801,
      " (-x)": 6802,
      " forall": 6803,
      "Rotation": 6804,
      "hom_app": 6805,
      " [eq_comm,": 6806,
      " (zero_le": 6807,
      "abilize": 6808,
      "usterP": 6809,
      " 𝕂": 6810,
      "Ori": 6811,
      "n)": 6812,
      "uishe": 6813,
      " a}": 6814,
      "unop_": 6815,
      " nth": 6816,
      " Star": 6817,
      ").Nonempty": 6818,
      "inguishe": 6819,
      "map]": 6820,
      "haar": 6821,
      "_eq_iff": 6822,
      " hx'\n": 6823,
      " choo": 6824,
      "_of_Z": 6825,
      " [hg": 6826,
      " IsUnit.": 6827,
      " (Measurable": 6828,
      " Finpartition": 6829,
      "Complem": 6830,
      " restrict": 6831,
      "density": 6832,
      " neg_one_": 6833,
      "prime_of_": 6834,
      "dvd\n": 6835,
      "toLin": 6836,
      " log_": 6837,
      " Quiver.": 6838,
      " [Finsupp.": 6839,
      " contrapose!": 6840,
      "lookup": 6841,
      " integral": 6842,
      ".J": 6843,
      "Bump": 6844,
      "Factorization": 6845,
      "Princip": 6846,
      "Ver": 6847,
      " (f_": 6848,
      " (With": 6849,
      " hπ": 6850,
      " [comp": 6851,
      "e_iff_": 6852,
      " ⟨H": 6853,
      " Lower": 6854,
      " atBot": 6855,
      "_of_ne_zero": 6856,
      "left_eq_": 6857,
      " H'": 6858,
      " H]\n": 6859,
      " ha⟩\n": 6860,
      " GeneralizedContinued": 6861,
      " this)\n": 6862,
      " hn⟩\n": 6863,
      "not_lt": 6864,
      "calc": 6865,
      " h₂⟩\n": 6866,
      "Differentiable": 6867,
      " Multiset.prod_": 6868,
      ".eq_of_": 6869,
      "Point_": 6870,
      " hasFDeriv": 6871,
      " Category.comp_": 6872,
      " find": 6873,
      "fderivWithin": 6874,
      " →ₐ[R]": 6875,
      "Cir": 6876,
      "Even": 6877,
      "Fra": 6878,
      "jacobiTheta": 6879,
      " (sub_": 6880,
      " [tendsto_": 6881,
      " b)\n": 6882,
      " f')": 6883,
      "le_self": 6884,
      "_eq_card_": 6885,
      "Rel_": 6886,
      "Ind": 6887,
      " |x": 6888,
      " z.re": 6889,
      "one_add_": 6890,
      " Set.Finite": 6891,
      " hb)": 6892,
      " hb⟩\n": 6893,
      "ieSubmodule": 6894,
      " Orthonormal": 6895,
      "op,": 6896,
      " List.fold": 6897,
      " h₂⟩": 6898,
      "_iff.mp": 6899,
      " ContinuousWithinAt": 6900,
      " ↥S)": 6901,
      " and_imp,": 6902,
      "nodup_": 6903,
      " ⊗[R]": 6904,
      "cons_self": 6905,
      " [restrict_": 6906,
      " IsLocalization.": 6907,
      "Fraction.": 6908,
      "_prop\n": 6909,
      "ncard": 6910,
      "y]\n": 6911,
      "rence": 6912,
      "coprime_": 6913,
      "rite": 6914,
      " snorm_": 6915,
      " M\n": 6916,
      " ?_).symm\n": 6917,
      " chain": 6918,
      "Resolution": 6919,
      "Unity": 6920,
      "OnWith": 6921,
      "valuation": 6922,
      "Equiv.to": 6923,
      " hb)\n": 6924,
      " add_le_add": 6925,
      "OfUnity": 6926,
      " zero_le_": 6927,
      "_iff_forall": 6928,
      " Real.sin": 6929,
      " reassoc_of%": 6930,
      "Scalars_": 6931,
      " Category.id_": 6932,
      " ext1": 6933,
      "_of_not_mem": 6934,
      "_nhdsWithin": 6935,
      "Triang": 6936,
      "_note": 6937,
      "weightedVSub": 6938,
      " Memℒp": 6939,
      " (Localization": 6940,
      ".inter": 6941,
      ".head": 6942,
      "MorphismProperty": 6943,
      "₁_": 6944,
      "isMax": 6945,
      ").det": 6946,
      "symm_": 6947,
      "lt_or_": 6948,
      " (R₂": 6949,
      ".1]\n": 6950,
      "liminf_": 6951,
      " Continuous.": 6952,
      " hm)": 6953,
      " not_and,": 6954,
      "cancel,": 6955,
      " f.support": 6956,
      "_right,": 6957,
      " LieAlgebra.": 6958,
      " AddCircle": 6959,
      ".affine": 6960,
      "iterate_succ": 6961,
      " ContinuousLinearMap": 6962,
      " MonoidHom.": 6963,
      "Thru": 6964,
      "field_simp\n": 6965,
      " (closedBall": 6966,
      "ffine_": 6967,
      "ordinate": 6968,
      "Bod": 6969,
      "Filte": 6970,
      "_sum_": 6971,
      "`\n": 6972,
      "oin": 6973,
      "ve_of_": 6974,
      "λ_": 6975,
      "₃\n": 6976,
      " (ℱ": 6977,
      " [de": 6978,
      "marting": 6979,
      "red.": 6980,
      " frontier": 6981,
      "mulIndicator": 6982,
      "le_iff,": 6983,
      "stabilize": 6984,
      " Lift": 6985,
      ".2)\n": 6986,
      "ite,": 6987,
      "exists_eq_": 6988,
      "_snd": 6989,
      " (IH": 6990,
      " exists_and_": 6991,
      " ≃ₗ": 6992,
      " κ)": 6993,
      " (⇑f": 6994,
      "_mem,": 6995,
      " Compact": 6996,
      " ext;": 6997,
      "Constant": 6998,
      "centr": 6999,
      "Nilpotent_": 7000,
      "arallel": 7001,
      ".ae_eq_mk": 7002,
      "Body": 7003,
      " ℙ": 7004,
      " 𝔸": 7005,
      "App": 7006,
      "Lex": 7007,
      "Splitting": 7008,
      "[𝕜]": 7009,
      "cidable": 7010,
      "o[": 7011,
      "tmul,": 7012,
      "₂]": 7013,
      "le.2": 7014,
      " [zpow_": 7015,
      " =o[": 7016,
      ").app": 7017,
      " ⟨t": 7018,
      " (shiftFunctor": 7019,
      "add_one_": 7020,
      " H⟩\n": 7021,
      " mul_nonneg": 7022,
      "atern": 7023,
      " Set.subset_": 7024,
      " hy)": 7025,
      ".symm.trans": 7026,
      "AtFilter": 7027,
      "Compl_": 7028,
      " unfold": 7029,
      "ariable": 7030,
      " π)": 7031,
      "erentiable_": 7032,
      "BigO_": 7033,
      " Monoid.": 7034,
      "Opposite": 7035,
      " (List.map": 7036,
      "mmersion": 7037,
      "circle": 7038,
      "expand_": 7039,
      "aternion": 7040,
      " Λ": 7041,
      " cases'": 7042,
      "𝓘(": 7043,
      " (neg_": 7044,
      " [T": 7045,
      " Seq": 7046,
      "_eq_smul_": 7047,
      " (hT": 7048,
      "tail_": 7049,
      "Deg": 7050,
      ".1.": 7051,
      " (Classical.": 7052,
      " DFunLike.": 7053,
      ".bi": 7054,
      "castRingHom": 7055,
      "RingedSpace": 7056,
      "plica": 7057,
      "implicialObject": 7058,
      " mk'": 7059,
      " atTop,": 7060,
      "split_ifs\n": 7061,
      "center_": 7062,
      "ramif": 7063,
      "not]\n": 7064,
      "distrib]\n": 7065,
      " padicNorm": 7066,
      "Aux.": 7067,
      " isEmpty_": 7068,
      "FractPair": 7069,
      " ⌈": 7070,
      " 𝓘(": 7071,
      "Immersion": 7072,
      "Sch": 7073,
      "at_of_": 7074,
      "ideal": 7075,
      " [exists_": 7076,
      " [nhds_": 7077,
      "compact_": 7078,
      " mfld_simps]\n": 7079,
      "art_": 7080,
      "its.": 7081,
      " (hU": 7082,
      " val_": 7083,
      " H)\n": 7084,
      " mul_neg,": 7085,
      " hs)\n": 7086,
      "topic": 7087,
      "option": 7088,
      " Int.natCast_": 7089,
      " hk⟩": 7090,
      " ⊤)": 7091,
      "Rotate": 7092,
      " (cons": 7093,
      ".pullback": 7094,
      "Blocks": 7095,
      "of_not_mem": 7096,
      " Function.comp_apply]\n": 7097,
      "succ_le_succ": 7098,
      "Additive": 7099,
      " omega\n": 7100,
      "Half": 7101,
      "_con": 7102,
      "e)": 7103,
      "lhs": 7104,
      "p_n": 7105,
      "inal_": 7106,
      " hE": 7107,
      " [[": 7108,
      "real.": 7109,
      "actic.": 7110,
      " F\n": 7111,
      " Irreducible": 7112,
      " *ᵥ": 7113,
      " ↑t": 7114,
      " ↑u": 7115,
      "lt_add": 7116,
      "coe]": 7117,
      ").symm.trans": 7118,
      "Preimage": 7119,
      " div_self": 7120,
      " Nat.cast_add,": 7121,
      "_naturality_": 7122,
      "Param": 7123,
      " lt_or_": 7124,
      " subset_closure": 7125,
      "sigmaFinite": 7126,
      "natCast]\n": 7127,
      "divisors": 7128,
      "slice_lhs": 7129,
      " congr\n": 7130,
      ".sub_": 7131,
      ".non": 7132,
      "_int": 7133,
      "fixed": 7134,
      "⟧)": 7135,
      " [Z": 7136,
      "res": 7137,
      " ?_).trans": 7138,
      "arctan": 7139,
      " (x₂": 7140,
      "asc": 7141,
      "asIdeal": 7142,
      "inv]": 7143,
      " eventually_of_forall": 7144,
      "Hom,": 7145,
      " {f": 7146,
      "left_mem_": 7147,
      "pos_left": 7148,
      " s.Nonempty": 7149,
      " Nat.cast_one,": 7150,
      " lt_trichotomy": 7151,
      " (Finsupp.": 7152,
      "HomologyIso": 7153,
      "uniformity_": 7154,
      "cheme.": 7155,
      "intervalIntegrable_": 7156,
      ".ι_": 7157,
      " Cauchy": 7158,
      " not_false_iff]\n": 7159,
      "Edge": 7160,
      "Rat_": 7161,
      "_def": 7162,
      " [fin": 7163,
      " [Iso": 7164,
      "t_iff_": 7165,
      " n₀": 7166,
      "can": 7167,
      "iff\n": 7168,
      " Po": 7169,
      "_eq_coe,": 7170,
      "lof": 7171,
      " E),": 7172,
      " -\n": 7173,
      "_null": 7174,
      " v₁)": 7175,
      " differentiable": 7176,
      " (pre": 7177,
      "Decidable": 7178,
      "jointe": 7179,
      "⁻¹,": 7180,
      "le_of_le_": 7181,
      ".factorization": 7182,
      " MeasureTheory.integral_": 7183,
      " MeasureTheory.lintegral_": 7184,
      " not_mem_": 7185,
      " uni": 7186,
      "ullMeasurable": 7187,
      "_le]\n": 7188,
      " [this]": 7189,
      "_fst": 7190,
      "Note": 7191,
      "conjTrans": 7192,
      " Nat.add_sub_": 7193,
      " ↑x)": 7194,
      "differentiableAt": 7195,
      "orec": 7196,
      ".forall_": 7197,
      "gt_atTop": 7198,
      " not_false_iff,": 7199,
      "decEq": 7200,
      " Dense": 7201,
      " self.": 7202,
      "_ext": 7203,
      "_cast": 7204,
      "_union_": 7205,
      "ce_of_": 7206,
      "measurableSet_": 7207,
      " (kernel": 7208,
      " [neg": 7209,
      " [Filter": 7210,
      "rel_": 7211,
      "le_coe,": 7212,
      "zero_eq_": 7213,
      " I\n": 7214,
      "_eq_left": 7215,
      " mo": 7216,
      "ent.": 7217,
      " (hS": 7218,
      " ↑z": 7219,
      "ToHom_": 7220,
      " Finset.sup_": 7221,
      " ONote": 7222,
      "monotone": 7223,
      " map_pow,": 7224,
      ".block": 7225,
      " Polynomial.coeff_": 7226,
      "right_comm,": 7227,
      " rfl⟩)\n": 7228,
      " prod.": 7229,
      "_real": 7230,
      "eq_of_ne": 7231,
      "_eq_zero_iff_": 7232,
      " natCast_": 7233,
      "acobiSym": 7234,
      " norm_num\n": 7235,
      " UniformSpace": 7236,
      "true_iff]\n": 7237,
      " continuousAt_": 7238,
      " Subsingleton.elim": 7239,
      " Iff.": 7240,
      ".pow": 7241,
      "K]": 7242,
      "Lower": 7243,
      "_meas": 7244,
      "crossing": 7245,
      "rration": 7246,
      "we": 7247,
      " hd,": 7248,
      " [inf_": 7249,
      " a),": 7250,
      "eq_mul_": 7251,
      " Fact": 7252,
      "_eq_bot_": 7253,
      " 0).": 7254,
      "coe_eq_": 7255,
      " [hom": 7256,
      "ite_": 7257,
      " {0": 7258,
      " init": 7259,
      " hbc": 7260,
      " (X₁": 7261,
      "range]": 7262,
      "homo": 7263,
      " isCompact_": 7264,
      "_int_": 7265,
      " norm_eq_": 7266,
      " (↑f": 7267,
      "Unitor": 7268,
      "Character": 7269,
      " neg_neg]\n": 7270,
      "injection": 7271,
      "const_mul_": 7272,
      "rows": 7273,
      "multiple": 7274,
      ".ne'": 7275,
      " [Polynomial.": 7276,
      " Prod.mk": 7277,
      " (mul_le_mul_": 7278,
      "OneSpectrum": 7279,
      "Separated": 7280,
      " (𝟙_": 7281,
      " limit.": 7282,
      " imp_": 7283,
      "ellFounded": 7284,
      "alternating": 7285,
      " ∆": 7286,
      " sup": 7287,
      "elem": 7288,
      "three": 7289,
      "riod_": 7290,
      " i₀": 7291,
      "toFinset,": 7292,
      " F))": 7293,
      " p2": 7294,
      " (hF": 7295,
      "sub_apply,": 7296,
      " ((F": 7297,
      "add\n": 7298,
      "pow_mul_": 7299,
      " Nat.div_": 7300,
      "penden": 7301,
      "one_div_": 7302,
      "subset_iff,": 7303,
      "Projective": 7304,
      "Derivation": 7305,
      " ↑(n": 7306,
      "Sets_": 7307,
      " hr]\n": 7308,
      "bijective": 7309,
      "neralize": 7310,
      " map₂": 7311,
      "_left\n": 7312,
      " ↥(Lp": 7313,
      " Iso.hom_inv_": 7314,
      " affineSpan": 7315,
      " default": 7316,
      "_[p])": 7317,
      "pingCone": 7318,
      " pos": 7319,
      " summable_": 7320,
      " term": 7321,
      "/2": 7322,
      "average_": 7323,
      "four": 7324,
      "sdiff,": 7325,
      " [r": 7326,
      "deg": 7327,
      "roun": 7328,
      "sec": 7329,
      " <$>": 7330,
      " Mon_": 7331,
      "stream": 7332,
      " Hah": 7333,
      "HomEquiv": 7334,
      " [hp,": 7335,
      "On_iff_": 7336,
      ".toFun": 7337,
      " Odd": 7338,
      "univ\n": 7339,
      "limit_": 7340,
      " ht]\n": 7341,
      "absolutely": 7342,
      " CategoryTheory.Monoidal": 7343,
      " zero_le": 7344,
      " p.coeff": 7345,
      "support_iff,": 7346,
      "Ioc,": 7347,
      "iSup,": 7348,
      "even_": 7349,
      " Presieve": 7350,
      " [if_neg": 7351,
      " smul_eq_mul]\n": 7352,
      "aylor": 7353,
      "Dual.": 7354,
      " (measure_mono": 7355,
      ".inv_hom_id_": 7356,
      " NormedAddGroup": 7357,
      " field_simp": 7358,
      " Ordering)": 7359,
      " Hahn": 7360,
      "A,": 7361,
      "Cas": 7362,
      "Meta": 7363,
      "_pow": 7364,
      "dd_": 7365,
      " (t.": 7366,
      " [-": 7367,
      " [degree_": 7368,
      "seu": 7369,
      "isLittleO": 7370,
      "eq_empty_or_nonempty": 7371,
      "to_nat": 7372,
      " C₁": 7373,
      " (hk": 7374,
      " v})": 7375,
      " Finset.induction_on": 7376,
      " mem_image_of_mem": 7377,
      ".isS": 7378,
      " cosh": 7379,
      "union]\n": 7380,
      "cancel_left,": 7381,
      " (Ne.symm": 7382,
      "sub_eq_zero_iff_": 7383,
      " ⟨⟨_,": 7384,
      "_left]\n": 7385,
      " (_root_": 7386,
      " AddSubmonoid": 7387,
      " forall_exists_": 7388,
      "Points": 7389,
      " biprod.": 7390,
      "expand": 7391,
      "setToL1": 7392,
      "simp_all\n": 7393,
      " TypeVec.{u}": 7394,
      " mem_of_superset": 7395,
      "radical": 7396,
      "embDomain": 7397,
      " (monomial": 7398,
      " MapsTo": 7399,
      " dual": 7400,
      "base_": 7401,
      " [comp_": 7402,
      " [insert_": 7403,
      " M,": 7404,
      "ormPerm": 7405,
      "local": 7406,
      " w'": 7407,
      " 0)\n": 7408,
      " hs⟩\n": 7409,
      ".toPresheafedSpace)": 7410,
      ".inf": 7411,
      " ↑(F": 7412,
      " CategoryTheory.Is": 7413,
      "_le\n": 7414,
      "preimage_eq_": 7415,
      "bernoulli": 7416,
      "ae_eq": 7417,
      "ofReal,": 7418,
      "ramSch": 7419,
      " [ENNReal.coe_": 7420,
      " [cfc": 7421,
      "countP": 7422,
      " Mathlib.Meta": 7423,
      " derivative_": 7424,
      " Primrec": 7425,
      "ramSchmid": 7426,
      ".cast_": 7427,
      "Lin": 7428,
      "Polynomi": 7429,
      "Size": 7430,
      "_diff_": 7431,
      "_mem_nhds": 7432,
      "fect": 7433,
      "fourier": 7434,
      "iInter_": 7435,
      "lon": 7436,
      "vary": 7437,
      " h',": 7438,
      " [bi": 7439,
      "re]\n": 7440,
      " abe": 7441,
      "unction": 7442,
      " _⟩,": 7443,
      "mul\n": 7444,
      " i}": 7445,
      " cycle": 7446,
      "_of_neg": 7447,
      " [hf,": 7448,
      "tent": 7449,
      " hs).": 7450,
      "value": 7451,
      " (cyclotomic": 7452,
      " ‖v": 7453,
      "natSep": 7454,
      "Connected_": 7455,
      " (Ioo": 7456,
      " one_mul": 7457,
      " refl": 7458,
      "obj,": 7459,
      "cancel_of_le": 7460,
      "ext_iff]": 7461,
      "Root_": 7462,
      "Valu": 7463,
      " String": 7464,
      "cyclesMap": 7465,
      " C(X,": 7466,
      " IsScalarTower.algebraMap": 7467,
      "zipWith": 7468,
      ".J)": 7469,
      " Δ": 7470,
      " ≈": 7471,
      " congr_fun": 7472,
      "FPowerSeries": 7473,
      "L2": 7474,
      "Tim": 7475,
      "Z,": 7476,
      "ful": 7477,
      "ncard_": 7478,
      "₂)\n": 7479,
      " [lift_": 7480,
      "sim": 7481,
      "apply'": 7482,
      " EMetric.": 7483,
      " mon": 7484,
      " hxz": 7485,
      " ge_iff_": 7486,
      "encard_": 7487,
      " vadd_": 7488,
      " d\n": 7489,
      " hf⟩\n": 7490,
      " j)\n": 7491,
      "coeFn": 7492,
      " Set.toFinset_": 7493,
      " hi)": 7494,
      " Y))": 7495,
      " not_exists,": 7496,
      " replace": 7497,
      "igroup": 7498,
      "true_of_": 7499,
      " LieIdeal": 7500,
      ".nn": 7501,
      " univ_": 7502,
      "nected.": 7503,
      "ModEq": 7504,
      "single_eq_": 7505,
      " Rat.cast_": 7506,
      " Associates": 7507,
      " continuousOn_": 7508,
      " simp_all\n": 7509,
      " √(": 7510,
      " Cardinal.{u_1})": 7511,
      " append_": 7512,
      " bernoulli": 7513,
      "genEigenspace": 7514,
      "topping": 7515,
      " linearIndependent_": 7516,
      " Mathlib.Meta.": 7517,
      " const": 7518,
      "Opp": 7519,
      "Rad": 7520,
      "VonN": 7521,
      " [pre": 7522,
      " S₁.": 7523,
      "toFun": 7524,
      " For": 7525,
      " ⟨V,": 7526,
      "hausdorff": 7527,
      " R).": 7528,
      "atBot": 7529,
      "etwe": 7530,
      " And.": 7531,
      "right'": 7532,
      " K\n": 7533,
      " {ω": 7534,
      "nce\n": 7535,
      "prod_mem_": 7536,
      "NNReal.coe_": 7537,
      "OfLE": 7538,
      "Continuous.": 7539,
      "dvd,": 7540,
      "_eq'": 7541,
      " ∂(": 7542,
      "_iff.mpr": 7543,
      "FiniteMeasure": 7544,
      " [Nat.zero_": 7545,
      " Ideal.mem_": 7546,
      "bind,": 7547,
      "erase,": 7548,
      ".ne']\n": 7549,
      " AddSubgroup": 7550,
      "Iic,": 7551,
      " ContinuousLinear": 7552,
      "AngleRotation": 7553,
      "Constan": 7554,
      "Preserves": 7555,
      " minpoly.": 7556,
      " biproduct": 7557,
      " BddAbove": 7558,
      "NormEDS": 7559,
      " real_inner_": 7560,
      "OppSide": 7561,
      "etween": 7562,
      "BilinForm": 7563,
      "Gr": 7564,
      "zz": 7565,
      "inl_": 7566,
      " hW": 7567,
      " [log": 7568,
      " aleph": 7569,
      "isOpen_": 7570,
      " n₂": 7571,
      "mul_self_": 7572,
      "le_sum": 7573,
      " Circle": 7574,
      " (some": 7575,
      "_of_subset": 7576,
      " HurwitzZeta": 7577,
      " (R₁": 7578,
      " [hb": 7579,
      " Nat.succ": 7580,
      " 1)).": 7581,
      "OfElement": 7582,
      "irkh": 7583,
      " (by\n": 7584,
      "_iff.2": 7585,
      "span,": 7586,
      " pow_succ,": 7587,
      "continuousWithinAt": 7588,
      " AddComm": 7589,
      " comp_zero]\n": 7590,
      "modify": 7591,
      "Nodup": 7592,
      " sqrt_": 7593,
      " (zero_lt_one": 7594,
      "Colum": 7595,
      " Real.Angle.sign_": 7596,
      " utf8Len": 7597,
      ".g": 7598,
      "GL": 7599,
      "M2": 7600,
      "Morphism": 7601,
      "TR": 7602,
      "_div": 7603,
      "block": 7604,
      " (if": 7605,
      " [tsub_": 7606,
      " ball_": 7607,
      " S₂.": 7608,
      " ⟨v": 7609,
      " prim": 7610,
      " r₁": 7611,
      " 0),": 7612,
      " EReal": 7613,
      " hf⟩": 7614,
      " (pi": 7615,
      " IsCyclotomicExtension": 7616,
      " /.": 7617,
      "valid": 7618,
      " index": 7619,
      " 𝕜')": 7620,
      "OfIs": 7621,
      " (Ici": 7622,
      "kernel_": 7623,
      "norm_vsub": 7624,
      " not_iff_": 7625,
      "ouv": 7626,
      " },": 7627,
      "ounded.": 7628,
      "counit": 7629,
      " ¬Is": 7630,
      " hasSum": 7631,
      "Arg": 7632,
      "Ioo,": 7633,
      "Transform": 7634,
      "centerMas": 7635,
      "Charpoly": 7636,
      "ball,": 7637,
      " mul_inv_cancel": 7638,
      " (Ideal.Quotient.mk": 7639,
      "solve_right": 7640,
      " homology": 7641,
      "inner_eq_zero": 7642,
      "quasiIso": 7643,
      "offDiag": 7644,
      "linear_combination": 7645,
      " lie_": 7646,
      "irkhoff": 7647,
      " setOf_": 7648,
      ".N": 7649,
      ".l": 7650,
      "Tactic.": 7651,
      "_congr": 7652,
      "_zero]\n": 7653,
      "scale": 7654,
      "₁]": 7655,
      " (add": 7656,
      " hH": 7657,
      " [z": 7658,
      " Trans": 7659,
      " Structure": 7660,
      " ⟨δ,": 7661,
      " pb.": 7662,
      "ceil_": 7663,
      " E,": 7664,
      " Epi": 7665,
      " trace": 7666,
      " cyclotomic": 7667,
      "neg\n": 7668,
      " (m₂": 7669,
      "card]\n": 7670,
      " (Iic": 7671,
      "_ne_zero_": 7672,
      " (e.": 7673,
      " U,": 7674,
      " reverse_": 7675,
      "_le_nhds": 7676,
      "Ring.": 7677,
      " sub_zero]\n": 7678,
      "Ext": 7679,
      "ordan": 7680,
      "rpow_of_nonneg": 7681,
      "eq_of_lt": 7682,
      "Above_of_": 7683,
      " AlgHom.": 7684,
      "differentiableAt_": 7685,
      " encode": 7686,
      " arg": 7687,
      " tail": 7688,
      "inaryCofan": 7689,
      "formPerm": 7690,
      " support": 7691,
      "B)": 7692,
      "atom": 7693,
      "volume": 7694,
      " (λ_": 7695,
      " h4": 7696,
      " hD": 7697,
      " ht_": 7698,
      "orel": 7699,
      " ⟨N,": 7700,
      "le_card_": 7701,
      " r₂": 7702,
      " tr": 7703,
      "ists": 7704,
      "tay": 7705,
      "succ_n": 7706,
      " {n": 7707,
      " {s": 7708,
      " h_le": 7709,
      ".le]\n": 7710,
      " smul_add,": 7711,
      " oangle_": 7712,
      "convolution": 7713,
      " h2,": 7714,
      " hI\n": 7715,
      " true_and,": 7716,
      "separable_": 7717,
      "cancel_left₀": 7718,
      " (lt_of_le_of_lt": 7719,
      " Mathlib.Tactic.": 7720,
      "codable": 7721,
      "Origin": 7722,
      "ouvil": 7723,
      ".preimage": 7724,
      ".out": 7725,
      "B,": 7726,
      " (integrable_": 7727,
      " his": 7728,
      " [Complex.": 7729,
      " [update": 7730,
      "ric": 7731,
      ").le": 7732,
      "mul_div_": 7733,
      "app_": 7734,
      "ists.": 7735,
      "Code": 7736,
      "comm,\n": 7737,
      " Group": 7738,
      "ofFn": 7739,
      " Finset.mul_": 7740,
      " hb'": 7741,
      " q'": 7742,
      " Indep": 7743,
      "discrete": 7744,
      " norm_smul,": 7745,
      "_nonneg,": 7746,
      " h₂]\n": 7747,
      " [mul_comm]": 7748,
      "ring1\n": 7749,
      "smul]": 7750,
      " sub_zero,": 7751,
      " ofReal": 7752,
      "Abs_": 7753,
      "equivFun": 7754,
      "intype.card_": 7755,
      "append]\n": 7756,
      ".no": 7757,
      "unique_": 7758,
      " ::ₘ": 7759,
      " sum_congr": 7760,
      " hU\n": 7761,
      " LinearEquiv": 7762,
      "eightOneSpectrum": 7763,
      "currence": 7764,
      ").ne\n": 7765,
      " Classical.decEq": 7766,
      "lt_add_of_": 7767,
      "hasSum_": 7768,
      "half_": 7769,
      " gcd": 7770,
      "atible": 7771,
      "sentation": 7772,
      "orientation": 7773,
      "acobson": 7774,
      " 𝓤": 7775,
      " .of_": 7776,
      " integrableOn_": 7777,
      "3,": 7778,
      "J,": 7779,
      " (convex": 7780,
      " [Alg": 7781,
      "isOpen": 7782,
      "zeta": 7783,
      "tilte": 7784,
      " R'": 7785,
      " (hζ": 7786,
      " simp,": 7787,
      "pairwise": 7788,
      " Subsem": 7789,
      "_apply'": 7790,
      " hp)\n": 7791,
      ".red": 7792,
      "irth": 7793,
      " [sq": 7794,
      "Seq.": 7795,
      "ellin": 7796,
      " [map_add,": 7797,
      "hom_ext": 7798,
      ".aemeasurable": 7799,
      ".mul_mem_": 7800,
      "pi_div_two]\n": 7801,
      "OnePow": 7802,
      "iecewise_": 7803,
      "iInter,": 7804,
      " Cᵒᵖ)": 7805,
      " [Int.cast_": 7806,
      " FormalMultilinearSeries.": 7807,
      " P.parts.card": 7808,
      " =ᵐ[μ]": 7809,
      "_noteq": 7810,
      "seudo": 7811,
      " suffices": 7812,
      "FAE": 7813,
      "Sequ": 7814,
      "nDeriv": 7815,
      "slope": 7816,
      "⌋₊": 7817,
      " h_eq": 7818,
      " bind": 7819,
      " ang": 7820,
      "eq_iff_": 7821,
      " S\n": 7822,
      " I))": 7823,
      "_eq_right": 7824,
      " hx.2": 7825,
      "encard": 7826,
      " e]\n": 7827,
      "zero_apply]\n": 7828,
      "mk,\n": 7829,
      "tent_": 7830,
      " Set.indicator": 7831,
      " 2)\n": 7832,
      ".symm)": 7833,
      " ‖u": 7834,
      "FinMeas": 7835,
      ".isClosed_": 7836,
      " toMatrix": 7837,
      "nonneg]\n": 7838,
      " opow_": 7839,
      "Ord": 7840,
      "_le,": 7841,
      " MvPower": 7842,
      "prime_pow": 7843,
      "adicVal": 7844,
      "Invariant": 7845,
      " Bool))": 7846,
      "alizedFactors_": 7847,
      "herence\n": 7848,
      "curry_": 7849,
      "adjugate": 7850,
      " true_and]\n": 7851,
      " #(": 7852,
      " [ha,": 7853,
      "matrix_": 7854,
      " pi_": 7855,
      " hQz": 7856,
      "Plane": 7857,
      "ordanDecomposition": 7858,
      " ⬝": 7859,
      ".unop": 7860,
      "Bundle": 7861,
      "Neg": 7862,
      "SL[": 7863,
      "aure": 7864,
      "i]": 7865,
      "mb": 7866,
      " (disjoint_": 7867,
      "inclusion": 7868,
      " h,\n": 7869,
      " [Has": 7870,
      "mul_mul_": 7871,
      " ⟨S,": 7872,
      " one": 7873,
      "neg,\n": 7874,
      "_of_finite": 7875,
      "sub_one": 7876,
      " Nat.pow_": 7877,
      " Nat.find_": 7878,
      " mem_iUnion,": 7879,
      "nontrivial_": 7880,
      ".inde": 7881,
      "ne_bot": 7882,
      " Projective": 7883,
      "ound_": 7884,
      " Real.norm_eq_abs,": 7885,
      "alizer_": 7886,
      " div_lt_": 7887,
      " div_eq_inv_": 7888,
      " SimpleFunc.": 7889,
      "trans_le": 7890,
      " LieModule": 7891,
      ".nil": 7892,
      "bind_": 7893,
      "openEmbedding": 7894,
      " (norm_": 7895,
      "trivialization": 7896,
      " hS\n": 7897,
      "ssociates.mk": 7898,
      "closedBall,": 7899,
      " infer_instance\n": 7900,
      " Functor.": 7901,
      " two_mul,": 7902,
      "true_iff,": 7903,
      " inter_subset_right": 7904,
      " Interval": 7905,
      "robenius_": 7906,
      " ℍ)": 7907,
      " isEmpty_or_nonempty": 7908,
      " generateFrom": 7909,
      " cthickening": 7910,
      ".subset": 7911,
      "Acc": 7912,
      "fst.": 7913,
      "r]\n": 7914,
      "uler": 7915,
      " i₁₂": 7916,
      "mul_self": 7917,
      "le_iff]\n": 7918,
      "app]\n": 7919,
      "comp]": 7920,
      " E))": 7921,
      "Initi": 7922,
      " (n₁": 7923,
      "Coproduct": 7924,
      " G\n": 7925,
      "Def": 7926,
      " IsEmpty": 7927,
      " Set.Icc": 7928,
      "subset_left": 7929,
      ".rec": 7930,
      " MeasureTheory.Is": 7931,
      "_le_left": 7932,
      " unit": 7933,
      "trace_": 7934,
      "right_iff]\n": 7935,
      "minFac": 7936,
      "supported": 7937,
      " Nat.cast_zero,": 7938,
      " univ)": 7939,
      " Cardinal.mk_": 7940,
      " hasDeriv": 7941,
      " [if_pos": 7942,
      "clic": 7943,
      ").inv.app": 7944,
      " lt_of_le_of_ne": 7945,
      "Bijective": 7946,
      "PointUnique": 7947,
      "shtein": 7948,
      " →ₗ[𝕜]": 7949,
      "tieltjesFunction": 7950,
      "setOf,": 7951,
      "ameRay": 7952,
      " EReal)": 7953,
      "PointUniqueUpTo": 7954,
      " coe": 7955,
      " size": 7956,
      "End.": 7957,
      "lusterP": 7958,
      "up_": 7959,
      " (neg": 7960,
      " (equiv": 7961,
      " [length_": 7962,
      " xy": 7963,
      "rich": 7964,
      " smeval_": 7965,
      "generalize": 7966,
      "loop": 7967,
      " y₀": 7968,
      " EMetric": 7969,
      " tra": 7970,
      " hx⟩,": 7971,
      " c).": 7972,
      "pos]": 7973,
      "exists]\n": 7974,
      "one_apply,": 7975,
      " Set.range_": 7976,
      "otProduct": 7977,
      " (trace": 7978,
      "abs]\n": 7979,
      " (-b": 7980,
      " sub_self,": 7981,
      " LinearMap.coe_": 7982,
      "vPolynomial.": 7983,
      " [add_comm": 7984,
      "ContinuousMap": 7985,
      "open_": 7986,
      " [(h": 7987,
      "le_add_iff_": 7988,
      " Quasi": 7989,
      "Maximal": 7990,
      "ideal_": 7991,
      " Matroid.": 7992,
      "degree_eq_natDegree": 7993,
      " exists_prop]\n": 7994,
      " ⬝ᵥ": 7995,
      "richlet": 7996,
      " cauchy": 7997,
      "Ann": 7998,
      "Ball": 7999,
      "Filter_": 8000,
      "_p": 8001,
      "_def]\n": 8002,
      "mer": 8003,
      "σ₁₂]": 8004,
      " [cons_": 8005,
      "lter": 8006,
      " x|": 8007,
      "eq_comm": 8008,
      "eq_zero]\n": 8009,
      ").le\n": 8010,
      "cons.": 8011,
      "contDiff": 8012,
      " y),": 8013,
      " Embedding": 8014,
      " c))": 8015,
      "Subfamily": 8016,
      " le_add_": 8017,
      " ‖z": 8018,
      "norm_mul_": 8019,
      " Ultrafilter": 8020,
      ".comp_apply,": 8021,
      "Pred": 8022,
      "NormNum": 8023,
      " Ω),": 8024,
      " and_self_": 8025,
      "Semiring": 8026,
      " Sum.elim": 8027,
      "Homotopic": 8028,
      " Γ)": 8029,
      "getElem?_": 8030,
      "tinuantsAux": 8031,
      "Deg1": 8032,
      " CircleDeg1": 8033,
      " ♯": 8034,
      " or": 8035,
      "data": 8036,
      "h,": 8037,
      "𝕜,": 8038,
      " (𝓞": 8039,
      " hγ": 8040,
      " hsub": 8041,
      "orn": 8042,
      " Trivialization": 8043,
      "cone_": 8044,
      " ⟨⟩\n": 8045,
      "mapsTo": 8046,
      " y]\n": 8047,
      " hxy,": 8048,
      " go": 8049,
      " (sSup": 8050,
      " mul_pow,": 8051,
      " GradedObject": 8052,
      " Nat.card_": 8053,
      "Total": 8054,
      " K[X]": 8055,
      " (i₁": 8056,
      " x)).": 8057,
      "ddAbove_": 8058,
      "nonzero": 8059,
      "otProduct_": 8060,
      " (cs": 8061,
      ".map_comp]\n": 8062,
      " ENNReal.tsum_": 8063,
      "_ne_one": 8064,
      "range_succ,": 8065,
      "Set,": 8066,
      " Polynomial.natDegree_": 8067,
      " (-π": 8068,
      " prod": 8069,
      "extension": 8070,
      "SpanSingleton": 8071,
      " iteratedDeriv": 8072,
      "potent": 8073,
      " continuousWithinAt_": 8074,
      "constantCoeff_": 8075,
      " (le_max_right": 8076,
      "associator": 8077,
      "Time_": 8078,
      "_comm": 8079,
      "_dvd_": 8080,
      "inverse": 8081,
      "repeat": 8082,
      " fs": 8083,
      " f₂)": 8084,
      "mul_mem_": 8085,
      "le_tsum": 8086,
      " R₂)": 8087,
      "_eq_one_": 8088,
      "itali": 8089,
      " cy": 8090,
      "add_le": 8091,
      " v‖": 8092,
      " v₁": 8093,
      " 1]": 8094,
      " erase_": 8095,
      "HomComplex.": 8096,
      " [hc": 8097,
      "pos)\n": 8098,
      " hba": 8099,
      "top_of_": 8100,
      "comp_assoc,": 8101,
      "_snd_": 8102,
      " (Pre": 8103,
      "At,": 8104,
      " map_sub,": 8105,
      " one_ne_zero": 8106,
      "Ordered": 8107,
      "bit_": 8108,
      "closure,": 8109,
      "subtype,": 8110,
      " Mod": 8111,
      "_right]\n": 8112,
      " [Finset.prod_": 8113,
      "X_pow,": 8114,
      "apply_ne": 8115,
      "exp_pos": 8116,
      " forall_mem_": 8117,
      "Domain.": 8118,
      " sub_eq_add_neg]\n": 8119,
      "fst,": 8120,
      " closure_": 8121,
      "split\n": 8122,
      " ↑↑X": 8123,
      " CharP.": 8124,
      ").trans_le": 8125,
      " Stream'": 8126,
      " CochainComplex.HomComplex.": 8127,
      "IsoOfEq": 8128,
      "Cauchy": 8129,
      " Limits.": 8130,
      " ⊣": 8131,
      ".imp": 8132,
      "T,": 8133,
      " (⋂": 8134,
      "alf_pos": 8135,
      " fac": 8136,
      " xn": 8137,
      " ⟨e,": 8138,
      " I₁": 8139,
      " L\n": 8140,
      "sound": 8141,
      " g⁻¹": 8142,
      "tag": 8143,
      " ↑X)": 8144,
      " d₁": 8145,
      "lt_coe": 8146,
      "norm_sq": 8147,
      " IsBounded": 8148,
      " BilinForm": 8149,
      " inner": 8150,
      " (Pi.": 8151,
      ".step": 8152,
      "_eq]": 8153,
      " (r₁": 8154,
      " zero_smul,": 8155,
      "_iff_of_": 8156,
      " not_and_": 8157,
      " reverse": 8158,
      ".continuous.": 8159,
      "neg_one": 8160,
      "get?_": 8161,
      "Preconnected_": 8162,
      "key": 8163,
      " hl,": 8164,
      " (o.oangle": 8165,
      " Pi.zero_apply,": 8166,
      " eq\n": 8167,
      " Category.assoc]\n": 8168,
      " Submonoid.": 8169,
      "orthogonal_": 8170,
      "basicOpen": 8171,
      " WeierstrassCurve.Affine": 8172,
      " Subset.trans": 8173,
      " (le_max_left": 8174,
      ".tendsto": 8175,
      ".integral_": 8176,
      "bun": 8177,
      "mixed": 8178,
      "zmod_": 8179,
      " hfin": 8180,
      "emann": 8181,
      "tere": 8182,
      " [left": 8183,
      " [cast_": 8184,
      " [aeval_": 8185,
      " b⁻¹": 8186,
      " u₃)": 8187,
      " T,": 8188,
      " sSup_": 8189,
      " ⟨j": 8190,
      " y₂": 8191,
      " trun": 8192,
      " A).": 8193,
      " drop": 8194,
      " eventually": 8195,
      " z₁": 8196,
      " B\n": 8197,
      "versch": 8198,
      " Finset.filter_": 8199,
      "chy_": 8200,
      "iebun": 8201,
      " hts": 8202,
      "_iff_ne_": 8203,
      " MeasureTheory.SimpleFunc.": 8204,
      " norm_nonneg": 8205,
      " hr⟩\n": 8206,
      " [add_comm]\n": 8207,
      "LocalizationMap": 8208,
      " (Fin.": 8209,
      " [f,": 8210,
      "SuccEquiv": 8211,
      "Valid": 8212,
      "iSup]\n": 8213,
      " sq,": 8214,
      "ᵒᵖ)": 8215,
      "Iio,": 8216,
      " LinearMap.toMatrix": 8217,
      ".const_mul": 8218,
      "HomologyMapData": 8219,
      "orsionBy": 8220,
      "verschiebun": 8221,
      "D_": 8222,
      "PF": 8223,
      "_pi": 8224,
      "_neg,": 8225,
      "e.": 8226,
      "some_": 8227,
      "tangent": 8228,
      " (?_": 8229,
      " (inter_": 8230,
      " (hasDerivAt_": 8231,
      " hd.": 8232,
      " [rpow_": 8233,
      " [Equiv.": 8234,
      " b₂)": 8235,
      "isjoint.": 8236,
      " i]\n": 8237,
      " SimplicialObject": 8238,
      " strict": 8239,
      "mul_assoc,": 8240,
      " ⟨le_": 8241,
      " Cub": 8242,
      " E).": 8243,
      "Colex": 8244,
      " μ'": 8245,
      "one_left": 8246,
      " mem_univ,": 8247,
      "ne_top,": 8248,
      "striction": 8249,
      "act_of_": 8250,
      "Opens": 8251,
      "_le_iff_": 8252,
      ").symm)": 8253,
      " (Nat.pos_of_ne_zero": 8254,
      "closure_iff_": 8255,
      "insert]\n": 8256,
      " LinearMap.BilinForm": 8257,
      " π,": 8258,
      "MultilinearMap": 8259,
      "Products.": 8260,
      "ssSup": 8261,
      " LinearEquiv.coe_": 8262,
      "pos_of_nonneg": 8263,
      " Module.Finite": 8264,
      " AlgHom": 8265,
      "splits": 8266,
      "iInf,": 8267,
      "Blocks_": 8268,
      " (abv": 8269,
      " Subset.antisymm": 8270,
      "directed_": 8271,
      " Surjective": 8272,
      "Multiplicity": 8273,
      "ningSets": 8274,
      "HomologicalComplex": 8275,
      " GeneralizedContinuedFraction.": 8276,
      "ouville": 8277,
      " match": 8278,
      " Decidable": 8279,
      ".dist_": 8280,
      ".germ": 8281,
      "Word": 8282,
      "Word.": 8283,
      "_empty": 8284,
      "df": 8285,
      "gain": 8286,
      "weight": 8287,
      "weightSpace": 8288,
      "{v": 8289,
      " hsu": 8290,
      "sep_": 8291,
      "mar": 8292,
      "rent": 8293,
      " fract": 8294,
      "le_card": 8295,
      " hx₂": 8296,
      " No": 8297,
      "Restrict_": 8298,
      "Indicator_": 8299,
      "map_of_": 8300,
      "add_left_": 8301,
      "left.2": 8302,
      "intere": 8303,
      "lt_iff": 8304,
      " [hs,": 8305,
      "norm_of_nonneg": 8306,
      "st_var": 8307,
      " hp₂": 8308,
      " hp⟩": 8309,
      " le_iSup": 8310,
      "hom,": 8311,
      " contMDiff": 8312,
      "_in_": 8313,
      " h₁₂": 8314,
      "traverse": 8315,
      "dvd_left": 8316,
      " (-x": 8317,
      "hasStrictDeriv": 8318,
      "right_inv": 8319,
      "smul₀": 8320,
      " sub_neg_eq_": 8321,
      " ⇑f)": 8322,
      " intros": 8323,
      "Aux]\n": 8324,
      " LieModule.": 8325,
      "nnreal": 8326,
      " {x})": 8327,
      " Option.map": 8328,
      " Subtype.range_": 8329,
      "_mem\n": 8330,
      " spanSingleton": 8331,
      "antitone": 8332,
      "indep_": 8333,
      "Class": 8334,
      " hpq\n": 8335,
      " [H,": 8336,
      " (ne_of_lt": 8337,
      "PiSystem": 8338,
      " (ρ_": 8339,
      "intCast,": 8340,
      "ihilator_": 8341,
      " ‖c‖": 8342,
      " (Quotient.mk": 8343,
      "forward": 8344,
      "italiFamily": 8345,
      "'_eq_": 8346,
      ".star": 8347,
      "P,": 8348,
      "snd.": 8349,
      "x]\n": 8350,
      " (dist": 8351,
      "ink": 8352,
      " [Basis.": 8353,
      "reverse_": 8354,
      "eq_bot_": 8355,
      " S))": 8356,
      " s}": 8357,
      " y}": 8358,
      " A⁰": 8359,
      "qui": 8360,
      "succ']\n": 8361,
      "right]": 8362,
      " ((n": 8363,
      "ective": 8364,
      " Subobject": 8365,
      " (Mul": 8366,
      " (Eq": 8367,
      ".map_mul,": 8368,
      " add_smul,": 8369,
      " ht⟩": 8370,
      " zero_pow": 8371,
      " hm⟩": 8372,
      ".bit": 8373,
      " not_le,": 8374,
      ".mk'_": 8375,
      " p.support": 8376,
      "Normed": 8377,
      " Ideal.Quotient.": 8378,
      " ⊗≫": 8379,
      "_add_one": 8380,
      "top_iff,": 8381,
      "modByMonic": 8382,
      "indep": 8383,
      " HasDerivAt.": 8384,
      "extChartAt_": 8385,
      "Pushout": 8386,
      " IsPrimitiveRoot": 8387,
      "cons_of_mem": 8388,
      "illing": 8389,
      " head": 8390,
      " ArithmeticFunction.": 8391,
      "ramifie": 8392,
      " unique": 8393,
      "Sequence": 8394,
      " ext\n": 8395,
      ".dual": 8396,
      "Io": 8397,
      "Linde": 8398,
      "NF": 8399,
      "U\n": 8400,
      "gau": 8401,
      "snorm_": 8402,
      "₂).": 8403,
      " (fin": 8404,
      " (image_": 8405,
      " (finrank": 8406,
      " (adjoin": 8407,
      " hψ": 8408,
      "or_eq_": 8409,
      " [ofReal_": 8410,
      " [Prod.": 8411,
      "isClosed_": 8412,
      " ⟨_": 8413,
      " ⟨C,": 8414,
      " L'": 8415,
      " (hf_": 8416,
      " H.": 8417,
      " e.hom": 8418,
      "Unramifie": 8419,
      "Theory": 8420,
      " OuterMeasure": 8421,
      " (cha": 8422,
      ".inf_": 8423,
      " (G₀": 8424,
      " hc⟩": 8425,
      " zero_comp,": 8426,
      "neg_one_": 8427,
      " (Nat.succ_": 8428,
      "cancel_right,": 8429,
      "ComplexShape": 8430,
      "Submodule,": 8431,
      " hj,": 8432,
      ".eq_or_": 8433,
      ".next": 8434,
      "berSubfamily": 8435,
      ".succAbove": 8436,
      " Set.mem_setOf_eq,": 8437,
      "alence": 8438,
      "biUnion,": 8439,
      " x.2)": 8440,
      "mk_mem_": 8441,
      " id\n": 8442,
      "conePointUniqueUpTo": 8443,
      "HasBasis": 8444,
      " Subset.rfl": 8445,
      "moveLeft": 8446,
      "Shift_": 8447,
      " true_and_iff,": 8448,
      "Subsingleton.elim": 8449,
      " CategoryTheory.GrothendieckTopology": 8450,
      " Batteries.RBNode.": 8451,
      " ξ": 8452,
      ".zero": 8453,
      "Dom": 8454,
      "Square": 8455,
      "_add,": 8456,
      "|h": 8457,
      "₄)": 8458,
      " (extChartAt": 8459,
      " [min": 8460,
      " by_cases": 8461,
      " u_open": 8462,
      " →SL[": 8463,
      " ⟨m": 8464,
      " p)\n": 8465,
      " (h1": 8466,
      "Cokernel": 8467,
      "add_neg]": 8468,
      " v))": 8469,
      "quas": 8470,
      " X'": 8471,
      "sum_eq_": 8472,
      " ((a": 8473,
      " z₂": 8474,
      " B₁": 8475,
      " (gc": 8476,
      " Over": 8477,
      "smul_def]\n": 8478,
      ".symm⟩\n": 8479,
      " (Add": 8480,
      " Cocone": 8481,
      "insert_eq_": 8482,
      "_indicator": 8483,
      " ZNum": 8484,
      " open": 8485,
      "coeff,": 8486,
      "Add_": 8487,
      " ∏ᶠ": 8488,
      "iSup_of_": 8489,
      "utator": 8490,
      " Finsupp.single": 8491,
      ".toLin": 8492,
      " [pow_zero,": 8493,
      " u_12)": 8494,
      " two_": 8495,
      "CommRing": 8496,
      " key\n": 8497,
      " [norm_smul,": 8498,
      " SetLike.mem_coe,": 8499,
      "simpleFunc": 8500,
      "sub_add_cancel_of_le": 8501,
      " ne_of_gt": 8502,
      " HasFDerivAt": 8503,
      " derivative": 8504,
      ".injEq,": 8505,
      "Weights": 8506,
      " cast": 8507,
      " sup_eq_": 8508,
      "TFAE": 8509,
      "_coe_": 8510,
      "_one_": 8511,
      "bot.": 8512,
      "rl": 8513,
      "u\n": 8514,
      "v\n": 8515,
      " hY": 8516,
      " u.": 8517,
      " Tot": 8518,
      "second": 8519,
      "reindex": 8520,
      " M),": 8521,
      " Pell": 8522,
      " try": 8523,
      " ↑s)": 8524,
      "invOf_": 8525,
      " X₂)": 8526,
      " ((x": 8527,
      "param": 8528,
      " (X₂": 8529,
      ".symm)\n": 8530,
      "div_const": 8531,
      " (List": 8532,
      "range_of_": 8533,
      " Polynomial.degree_": 8534,
      " [mul_assoc]\n": 8535,
      " LinearMap.range": 8536,
      " pow_one,": 8537,
      " ⟨⟨⟨": 8538,
      "continuousWithinAt_": 8539,
      " ω\n": 8540,
      "dvd]\n": 8541,
      " (σ₁₂": 8542,
      "ordChange": 8543,
      "ssSup_": 8544,
      " comp_id,": 8545,
      " (inst": 8546,
      "integrableOn": 8547,
      "source_": 8548,
      "NonUnital": 8549,
      " ContDiffOn": 8550,
      " DifferentiableAt": 8551,
      " Homotopy": 8552,
      " (abs_nonneg": 8553,
      "Process": 8554,
      "quarefree": 8555,
      " ⟨ε,": 8556,
      "martingale": 8557,
      " 𝓘(𝕜,": 8558,
      " IntervalIntegrable": 8559,
      "gainst": 8560,
      "quash": 8561,
      "Against": 8562,
      "Ba": 8563,
      "C_": 8564,
      "Odd": 8565,
      "_trans": 8566,
      "ay_": 8567,
      "wt": 8568,
      " (4": 8569,
      " h']\n": 8570,
      "teri": 8571,
      " [assoc,": 8572,
      " [Functor": 8573,
      " b),": 8574,
      " bound": 8575,
      " u\n": 8576,
      "finsupp_": 8577,
      "reate": 8578,
      " <+": 8579,
      "cofinite": 8580,
      "of_pos": 8581,
      "le_right": 8582,
      " R₂": 8583,
      "flTransGen": 8584,
      " (hB": 8585,
      " (hφ": 8586,
      "Coprime_": 8587,
      "MapObj": 8588,
      " mul_assoc,\n": 8589,
      "sub_le": 8590,
      "iding": 8591,
      "parent": 8592,
      " K).": 8593,
      ".top_": 8594,
      " 2).": 8595,
      "presheaf": 8596,
      "fun_prop\n": 8597,
      " Weight": 8598,
      " List.length": 8599,
      " ContinuousMap.": 8600,
      "kew": 8601,
      "Limit_": 8602,
      "inj'": 8603,
      " and_imp]\n": 8604,
      " [LinearMap": 8605,
      "unit.": 8606,
      " continuous_const": 8607,
      " StronglyMeasurable": 8608,
      " Filter.Tendsto": 8609,
      " hfg\n": 8610,
      " AlgebraicTopology": 8611,
      " (Finset.mem_univ": 8612,
      "card_eq_fintype_": 8613,
      "HomologyMap'": 8614,
      "CentralSeries_": 8615,
      "testAgainst": 8616,
      " Asymptotics.is": 8617,
      " (Multiset.map": 8618,
      " CompleteLattice": 8619,
      " RatFunc": 8620,
      "SameSide": 8621,
      "Constant.": 8622,
      " Real.Angle.sign_coe_": 8623,
      "Accum": 8624,
      "testAgainstNN": 8625,
      ".G": 8626,
      "Factorial_": 8627,
      "Last_": 8628,
      "MFDeriv": 8629,
      "Step": 8630,
      "_ae": 8631,
      "_cons,": 8632,
      "_mea": 8633,
      "cpow_": 8634,
      "dKernel": 8635,
      "name_": 8636,
      "ncodable": 8637,
      "x‖": 8638,
      "ι)": 8639,
      " hκ": 8640,
      " h𝒜": 8641,
      " h''": 8642,
      " [id_": 8643,
      "t.1": 8644,
      " n‖": 8645,
      "mul_lt_": 8646,
      "ne\n": 8647,
      " p_": 8648,
      ")),\n": 8649,
      " last": 8650,
      " hf₁": 8651,
      " hf).": 8652,
      "Subsem": 8653,
      ".toNNReal": 8654,
      " x))\n": 8655,
      "Equiv,": 8656,
      "Proj": 8657,
      " (t₁": 8658,
      " ht'": 8659,
      " zero_comp]\n": 8660,
      " φ).": 8661,
      "Move": 8662,
      "asispectrum": 8663,
      "support_eq_": 8664,
      "Right,": 8665,
      "inj]": 8666,
      "contract": 8667,
      ".measure": 8668,
      " (le_refl": 8669,
      "forall,": 8670,
      "nodup": 8671,
      " Algebra.adjoin": 8672,
      " [iSup_": 8673,
      "_symm,": 8674,
      " Filter.tendsto_": 8675,
      " [Finsupp": 8676,
      "pow_eq_one": 8677,
      " hst\n": 8678,
      " inter_subset_right\n": 8679,
      " id_comp,": 8680,
      " (Int.castRingHom": 8681,
      " mul_le_mul_of_nonneg_left": 8682,
      "rink": 8683,
      " [Category.assoc,": 8684,
      " Adjoin": 8685,
      " diagonal": 8686,
      "lueData": 8687,
      " nnnorm_": 8688,
      " le_refl]\n": 8689,
      " ⟨-,": 8690,
      "inguished": 8691,
      "Principal": 8692,
      "plicative": 8693,
      " CategoryTheory.MonoidalCategory.": 8694,
      "toppingTime": 8695,
      " ↑↑X.toPresheafedSpace)": 8696,
      "interedge": 8697,
      ":ℝ": 8698,
      "As": 8699,
      "_one,": 8700,
      "ix.": 8701,
      "ni": 8702,
      "quot": 8703,
      "son": 8704,
      "way": 8705,
      " (ϕ": 8706,
      " (congr": 8707,
      " [preimage_": 8708,
      " [integral": 8709,
      " a‖": 8710,
      " a₂)": 8711,
      " s₂)": 8712,
      " shiftFunctor": 8713,
      " F₁": 8714,
      " ⟨φ,": 8715,
      "map,\n": 8716,
      "sub,\n": 8717,
      " PFunctor.": 8718,
      "_eq_n": 8719,
      " L).": 8720,
      " ↑e": 8721,
      " β\n": 8722,
      "ge_atTop": 8723,
      "rightInv": 8724,
      " G')": 8725,
      "smul_set_": 8726,
      "UnionFin": 8727,
      " one_pow,": 8728,
      " not_lt,": 8729,
      "ndre": 8730,
      " neg_smul,": 8731,
      " [mem_preimage,": 8732,
      "self_iff": 8733,
      "bij": 8734,
      "triangle_": 8735,
      "exp,": 8736,
      " neg_neg,": 8737,
      " p.degree": 8738,
      "_nonneg]\n": 8739,
      "sorb": 8740,
      " HasCompact": 8741,
      " desc": 8742,
      " (Finsupp": 8743,
      " [fold": 8744,
      "Algebra\n": 8745,
      " Subgroup.": 8746,
      " logb": 8747,
      "withDensity_": 8748,
      "Diagram": 8749,
      "trivial\n": 8750,
      "conts_": 8751,
      " hne\n": 8752,
      "ConstLp": 8753,
      "toReal,": 8754,
      "modEq_": 8755,
      "Bound_": 8756,
      "cancel_right₀": 8757,
      " Sepa": 8758,
      "Subset.trans": 8759,
      "spectsIso": 8760,
      "stdBasis": 8761,
      " Semiconj": 8762,
      "inatedFinMeas": 8763,
      "Circumcenter": 8764,
      " |x|": 8765,
      "Tar": 8766,
      "_id": 8767,
      "domain": 8768,
      "part_": 8769,
      "≠]": 8770,
      " (ComplexShape": 8771,
      " hre": 8772,
      "round": 8773,
      " a0": 8774,
      " F')": 8775,
      "le_zero": 8776,
      " I).": 8777,
      "stalk": 8778,
      " w₁": 8779,
      " A₁": 8780,
      " (swap": 8781,
      "lt_self": 8782,
      " IsPre": 8783,
      " mem_image,": 8784,
      "imum": 8785,
      " Y')": 8786,
      " map_zero]\n": 8787,
      " hg⟩": 8788,
      ".isOpen_": 8789,
      "inductionOn": 8790,
      "ign": 8791,
      "oldKan": 8792,
      "AddCircle": 8793,
      ").toNNReal": 8794,
      "changeOrigin": 8795,
      " Prepartition": 8796,
      "Integrally": 8797,
      " geom": 8798,
      "Idem": 8799,
      " Functor.map_comp,": 8800,
      "atTop_atTop": 8801,
      "arrows": 8802,
      " EqOn": 8803,
      "ennreal": 8804,
      " abs_of_pos": 8805,
      " Ordnode.": 8806,
      " IntermediateField": 8807,
      "apply_symm_apply]\n": 8808,
      " (x✝¹": 8809,
      " _).trans_lt": 8810,
      "LocalizedModule": 8811,
      "space_": 8812,
      " Quiver.Hom.": 8813,
      " {0}": 8814,
      " Mathlib.Meta.NormNum": 8815,
      ".ae_": 8816,
      "F,": 8817,
      "Nat_eq_": 8818,
      "Taylor": 8819,
      "kah": 8820,
      " (Submonoid": 8821,
      "oni": 8822,
      " [oangle_": 8823,
      " aeval": 8824,
      " associate": 8825,
      "undef": 8826,
      " say": 8827,
      "point_": 8828,
      " ⟨I,": 8829,
      " R⁰": 8830,
      " pb": 8831,
      " EventuallyEq": 8832,
      " hx₀": 8833,
      " hx)]\n": 8834,
      " cs": 8835,
      " (ae_": 8836,
      " Angle": 8837,
      " Analytic": 8838,
      "Inducing": 8839,
      "map_of_mem": 8840,
      "Coprod": 8841,
      " ι')": 8842,
      "product_": 8843,
      " ≤\n": 8844,
      " Nat.one_": 8845,
      " V₁": 8846,
      " ∧\n": 8847,
      "inv_cancel": 8848,
      "Iso,": 8849,
      " (L₁": 8850,
      "_inf_": 8851,
      "cast,": 8852,
      " (↑m": 8853,
      " o.": 8854,
      "Orthonormal": 8855,
      "differentiable_": 8856,
      "_eq_zero]": 8857,
      " [add_assoc,": 8858,
      ".monic": 8859,
      ".nhds_": 8860,
      " ¬(": 8861,
      "ContinuousFunction.": 8862,
      "ContinuousLinearMap": 8863,
      "desc]\n": 8864,
      ".snd)": 8865,
      " OrderIso": 8866,
      "eq_zero_iff": 8867,
      "circum": 8868,
      " ↑i)": 8869,
      " Primrec.": 8870,
      " ⟨ha,": 8871,
      "CrossingTime": 8872,
      "FactorizationMonoid": 8873,
      " lt_or_le": 8874,
      " Real.Angle.sign_coe_pi_div_two]\n": 8875,
      " thickening": 8876,
      ".S": 8877,
      ".desc": 8878,
      "1}": 8879,
      "Ite": 8880,
      "M,": 8881,
      "Pure": 8882,
      "_tendsto": 8883,
      "group_": 8884,
      "name": 8885,
      " h_n": 8886,
      " [range_": 8887,
      " [continuous_": 8888,
      ").sub": 8889,
      "sub]": 8890,
      "subsingleton]\n": 8891,
      " Irration": 8892,
      " weighted": 8893,
      " y⟫_𝕜": 8894,
      " tsub_add_cancel_of_le": 8895,
      " cpow_": 8896,
      " SetLike.": 8897,
      "symm_apply": 8898,
      "ofReal.": 8899,
      " (F.": 8900,
      "normalizer": 8901,
      " (g'": 8902,
      " One": 8903,
      "self,\n": 8904,
      "ne_one": 8905,
      " Disjoint.": 8906,
      "naturality_": 8907,
      "div_iff_mul_": 8908,
      ".slope": 8909,
      " List.length_": 8910,
      " MeasureTheory.AE": 8911,
      "OpenImmersion": 8912,
      ".coe_mk,": 8913,
      "equi": 8914,
      "heafify": 8915,
      "X_pow_eq_": 8916,
      " hw,": 8917,
      " Set.mem_singleton": 8918,
      " ≃ₐ": 8919,
      ".piecewise": 8920,
      " [eq_iff_": 8921,
      "finset_sum": 8922,
      " comp_apply]\n": 8923,
      " norm_num)": 8924,
      ".pred": 8925,
      " #α": 8926,
      " VectorMeasure": 8927,
      " MulChar": 8928,
      " inter_subset_left": 8929,
      " ⟨a',": 8930,
      "X_pow_sub_C": 8931,
      "BaseChange": 8932,
      ".stalk": 8933,
      " monotone_": 8934,
      "NeBot": 8935,
      " InfinitePlace": 8936,
      "natTrailingDegree": 8937,
      "lternating": 8938,
      "Idempotent": 8939,
      "Imp": 8940,
      "MOD": 8941,
      "aw": 8942,
      "bly": 8943,
      "between": 8944,
      "x⟩": 8945,
      "↑n": 8946,
      "⟦X": 8947,
      " (const": 8948,
      "inal": 8949,
      "inr_": 8950,
      " h;": 8951,
      "teIdx": 8952,
      " [u": 8953,
      "dedup": 8954,
      "fin_cases": 8955,
      " xr": 8956,
      " S'": 8957,
      " s]\n": 8958,
      "le_left": 8959,
      "gendre": 8960,
      "has_": 8961,
      "s_iff": 8962,
      " m)\n": 8963,
      "pow,\n": 8964,
      " tangent": 8965,
      "Recurrence": 8966,
      "zero_iff": 8967,
      " ((shiftFunctor": 8968,
      "congr!": 8969,
      " hs⟩": 8970,
      "one_lt": 8971,
      " exact\n": 8972,
      "Prob": 8973,
      " (two": 8974,
      "image]": 8975,
      "integral_of_": 8976,
      ".filter_": 8977,
      " CategoryTheory.MorphismProperty": 8978,
      " hc⟩\n": 8979,
      " (e₁": 8980,
      " (eventually_": 8981,
      "rank_": 8982,
      " o)": 8983,
      "spanSingleton": 8984,
      "agge": 8985,
      "_ne_zero\n": 8986,
      "ZeroSMul": 8987,
      "ext_iff": 8988,
      "WithinAt,": 8989,
      " pred_": 8990,
      "restrictScalars": 8991,
      "Iso_inv_": 8992,
      " inf_eq_": 8993,
      " [inner_": 8994,
      "lipschitzWith": 8995,
      " tendsto_nhds_": 8996,
      " (not_mem_": 8997,
      "Antidiagonal": 8998,
      "lt.1": 8999,
      " inferInstance\n": 9000,
      " not_forall,": 9001,
      " WittVector.": 9002,
      " RatFunc.": 9003,
      ".DoldKan": 9004,
      "_subset_Icc_self": 9005,
      " Angle)": 9006,
      "ZeroSMulDivisor": 9007,
      "K)": 9008,
      "csSup": 9009,
      "drop_": 9010,
      "lt.2": 9011,
      "ove": 9012,
      "sB": 9013,
      "sg": 9014,
      "vsub_eq_": 9015,
      "write": 9016,
      " [sub": 9017,
      " [e,": 9018,
      " [Units.": 9019,
      "degenerate": 9020,
      "ulate": 9021,
      "cocompact": 9022,
      " n]": 9023,
      " Smooth": 9024,
      "tower": 9025,
      "mul_assoc": 9026,
      " C₂": 9027,
      " C₂)": 9028,
      "flip_": 9029,
      " tᶜ": 9030,
      "_of_nonpos": 9031,
      "Map]\n": 9032,
      " mul_one]": 9033,
      " [hn": 9034,
      "mk0": 9035,
      " Nat.dvd_": 9036,
      " mem_filter,": 9037,
      " quot_": 9038,
      " (tr": 9039,
      "image₂": 9040,
      " ht)": 9041,
      " map_zero,": 9042,
      ".shift": 9043,
      "angle,": 9044,
      " one_ne_zero\n": 9045,
      " ⟨hf": 9046,
      "besg": 9047,
      ".compl": 9048,
      " Function.comp_": 9049,
      " (Nat.le_of_": 9050,
      "Differenti": 9051,
      "equiv_": 9052,
      " HasStrictDeriv": 9053,
      "subtype\n": 9054,
      "AddHom": 9055,
      "pology": 9056,
      "sqr": 9057,
      "filter]\n": 9058,
      "Exp": 9059,
      " minimal": 9060,
      "indicator,": 9061,
      "Curry": 9062,
      " Module.End.": 9063,
      "oxe": 9064,
      "two_mul,": 9065,
      "struct_": 9066,
      " mul_div_assoc,": 9067,
      "fib": 9068,
      " countP": 9069,
      " (starRingEnd": 9070,
      " (Prod.map": 9071,
      "rename": 9072,
      "smoothing": 9073,
      " nhdsWithin_le_nhds": 9074,
      "emannZeta": 9075,
      "st_vars\n": 9076,
      " dual_": 9077,
      "'.1": 9078,
      ".F": 9079,
      ".range_": 9080,
      ".finite": 9081,
      ".has": 9082,
      ".extend_": 9083,
      "Fa": 9084,
      "JordanDecomposition": 9085,
      "_assoc,": 9086,
      "s).": 9087,
      "spectrum": 9088,
      "vable": 9089,
      " (⨅": 9090,
      " (𝓤": 9091,
      " (comp": 9092,
      " (Co": 9093,
      " (card_": 9094,
      " [count_": 9095,
      " b}": 9096,
      " uG)": 9097,
      " f',": 9098,
      " f.symm": 9099,
      " f.f": 9100,
      " xL": 9101,
      "vection": 9102,
      " F,": 9103,
      " F[X])": 9104,
      "le_max": 9105,
      "ominatedFinMeas": 9106,
      " p]\n": 9107,
      " p₂,": 9108,
      "any": 9109,
      " yoneda": 9110,
      " cut": 9111,
      " (hC": 9112,
      " (non": 9113,
      "add_div": 9114,
      " X).hom": 9115,
      " [h₁,": 9116,
      " IsFractionRing": 9117,
      " IsClosed.": 9118,
      " Nat.lt_succ": 9119,
      "WithCircumcenter": 9120,
      " n)]\n": 9121,
      "disjointe": 9122,
      " (μ.trim": 9123,
      " hc₁": 9124,
      "nonneg\n": 9125,
      "_le_one": 9126,
      " (-a)": 9127,
      " haveI": 9128,
      " ⇑e": 9129,
      " ⟨⟨h": 9130,
      " Ω))": 9131,
      "lindex": 9132,
      " Complex.Gamma": 9133,
      "choose_spe": 9134,
      "nnnorm,": 9135,
      " (o.": 9136,
      "nonempty_iff_eq_": 9137,
      ".toLinear": 9138,
      " (IsLocalization": 9139,
      " G.Adj": 9140,
      " completed": 9141,
      " UniformContinuous": 9142,
      "rotate_": 9143,
      "pointReflection": 9144,
      "Cycles_": 9145,
      " [inst": 9146,
      "Opcycles": 9147,
      "polynomial_": 9148,
      "aestronglyMeasurable\n": 9149,
      "annihilator": 9150,
      "associated_": 9151,
      " Quot.mk": 9152,
      "Digits": 9153,
[...]
